{
  "version": "1.0",
  "truncation": null,
  "padding": null,
  "added_tokens": [
    {
      "id": 0,
      "content": "<pad>",
      "single_word": false,
      "lstrip": false,
      "rstrip": false,
      "normalized": false,
      "special": true
    },
    {
      "id": 1,
      "content": "<unk>",
      "single_word": false,
      "lstrip": false,
      "rstrip": false,
      "normalized": false,
      "special": true
    },
    {
      "id": 2,
      "content": "<bos>",
      "single_word": false,
      "lstrip": false,
      "rstrip": false,
      "normalized": false,
      "special": true
    },
    {
      "id": 3,
      "content": "<eos>",
      "single_word": false,
      "lstrip": false,
      "rstrip": false,
      "normalized": false,
      "special": true
    }
  ],
  "normalizer": null,
  "pre_tokenizer": {
    "type": "Whitespace"
  },
  "post_processor": {
    "type": "TemplateProcessing",
    "single": [
      {
        "SpecialToken": {
          "id": "<bos>",
          "type_id": 0
        }
      },
      {
        "Sequence": {
          "id": "A",
          "type_id": 0
        }
      },
      {
        "SpecialToken": {
          "id": "<eos>",
          "type_id": 0
        }
      }
    ],
    "pair": [
      {
        "Sequence": {
          "id": "A",
          "type_id": 0
        }
      },
      {
        "Sequence": {
          "id": "B",
          "type_id": 1
        }
      }
    ],
    "special_tokens": {
      "<bos>": {
        "id": "<bos>",
        "ids": [
          2
        ],
        "tokens": [
          "<bos>"
        ]
      },
      "<eos>": {
        "id": "<eos>",
        "ids": [
          3
        ],
        "tokens": [
          "<eos>"
        ]
      }
    }
  },
  "decoder": null,
  "model": {
    "type": "BPE",
    "dropout": null,
    "unk_token": "<unk>",
    "continuing_subword_prefix": null,
    "end_of_word_suffix": null,
    "fuse_unk": false,
    "byte_fallback": false,
    "ignore_merges": false,
    "vocab": {
      "<pad>": 0,
      "<unk>": 1,
      "<bos>": 2,
      "<eos>": 3,
      "\"": 4,
      "(": 5,
      ")": 6,
      ",": 7,
      "-": 8,
      ":": 9,
      ";": 10,
      "«": 11,
      "»": 12,
      "Ё": 13,
      "А": 14,
      "Б": 15,
      "В": 16,
      "Г": 17,
      "Д": 18,
      "Е": 19,
      "Ж": 20,
      "З": 21,
      "И": 22,
      "Й": 23,
      "К": 24,
      "Л": 25,
      "М": 26,
      "Н": 27,
      "О": 28,
      "П": 29,
      "Р": 30,
      "С": 31,
      "Т": 32,
      "У": 33,
      "Ф": 34,
      "Х": 35,
      "Ц": 36,
      "Ч": 37,
      "Ш": 38,
      "Щ": 39,
      "Ъ": 40,
      "Ы": 41,
      "Ь": 42,
      "Э": 43,
      "Ю": 44,
      "Я": 45,
      "а": 46,
      "б": 47,
      "в": 48,
      "г": 49,
      "д": 50,
      "е": 51,
      "ж": 52,
      "з": 53,
      "и": 54,
      "й": 55,
      "к": 56,
      "л": 57,
      "м": 58,
      "н": 59,
      "о": 60,
      "п": 61,
      "р": 62,
      "с": 63,
      "т": 64,
      "у": 65,
      "ф": 66,
      "х": 67,
      "ц": 68,
      "ч": 69,
      "ш": 70,
      "щ": 71,
      "ъ": 72,
      "ы": 73,
      "ь": 74,
      "э": 75,
      "ю": 76,
      "я": 77,
      "ё": 78,
      "—": 79,
      "то": 80,
      "на": 81,
      "но": 82,
      "не": 83,
      "ст": 84,
      "по": 85,
      "ал": 86,
      "ко": 87,
      "го": 88,
      "ро": 89,
      "ра": 90,
      "ка": 91,
      "ни": 92,
      "во": 93,
      "ре": 94,
      "ло": 95,
      "ли": 96,
      "ри": 97,
      "ла": 98,
      "ть": 99,
      "ве": 100,
      "те": 101,
      "ва": 102,
      "де": 103,
      "за": 104,
      "до": 105,
      "ле": 106,
      "--": 107,
      "ся": 108,
      "се": 109,
      "же": 110,
      "да": 111,
      "ме": 112,
      "ны": 113,
      "мо": 114,
      "че": 115,
      "ль": 116,
      "бы": 117,
      "сь": 118,
      "ви": 119,
      "ми": 120,
      "ки": 121,
      "та": 122,
      "что": 123,
      "ру": 124,
      "ну": 125,
      "от": 126,
      "вы": 127,
      "ди": 128,
      "со": 129,
      "ти": 130,
      "про": 131,
      "му": 132,
      "ше": 133,
      "бе": 134,
      "бо": 135,
      "пе": 136,
      "хо": 137,
      "ма": 138,
      "при": 139,
      "он": 140,
      "ня": 141,
      "ду": 142,
      "ку": 143,
      "чи": 144,
      "сто": 145,
      "ши": 146,
      "ста": 147,
      "си": 148,
      "ча": 149,
      "ля": 150,
      "его": 151,
      "ала": 152,
      "жи": 153,
      "са": 154,
      "все": 155,
      "нно": 156,
      "ры": 157,
      "как": 158,
      "это": 159,
      "ска": 160,
      "раз": 161,
      "об": 162,
      "лу": 163,
      "нь": 164,
      "ты": 165,
      "ет": 166,
      "из": 167,
      "али": 168,
      "ще": 169,
      "ско": 170,
      "сти": 171,
      "бу": 172,
      "лю": 173,
      "ря": 174,
      "па": 175,
      "ние": 176,
      "ту": 177,
      "под": 178,
      "га": 179,
      "сть": 180,
      "пре": 181,
      "сво": 182,
      "зна": 183,
      "лся": 184,
      "пи": 185,
      "ги": 186,
      "ша": 187,
      "вал": 188,
      "лы": 189,
      "нны": 190,
      "гово": 191,
      "це": 192,
      "вер": 193,
      "она": 194,
      "гда": 195,
      "мы": 196,
      "ба": 197,
      "тель": 198,
      "рас": 199,
      "сказ": 200,
      "кото": 201,
      "би": 202,
      "ву": 203,
      "кой": 204,
      "ее": 205,
      "щи": 206,
      "лько": 207,
      "жа": 208,
      "су": 209,
      "так": 210,
      "пу": 211,
      "ния": 212,
      "ной": 213,
      "дру": 214,
      "гла": 215,
      "чу": 216,
      "пере": 217,
      "гу": 218,
      "было": 219,
      "ца": 220,
      "сле": 221,
      "ды": 222,
      "ало": 223,
      "говори": 224,
      "ей": 225,
      "ски": 226,
      "рь": 227,
      "ком": 228,
      "По": 229,
      "ться": 230,
      "ск": 231,
      "дь": 232,
      "дно": 233,
      "аль": 234,
      "спо": 235,
      "ный": 236,
      "ство": 237,
      "пра": 238,
      "шь": 239,
      "мне": 240,
      "вши": 241,
      "ке": 242,
      "сте": 243,
      "меня": 244,
      "ему": 245,
      "их": 246,
      "тре": 247,
      "голо": 248,
      "Он": 249,
      "вз": 250,
      "жно": 251,
      "На": 252,
      "вая": 253,
      "воз": 254,
      "ем": 255,
      "сло": 256,
      "бя": 257,
      "том": 258,
      "тся": 259,
      "лась": 260,
      "был": 261,
      "ная": 262,
      "ного": 263,
      "сказал": 264,
      "Не": 265,
      "слу": 266,
      "гля": 267,
      "только": 268,
      "ные": 269,
      "мя": 270,
      "когда": 271,
      "ходи": 272,
      "еще": 273,
      "нул": 274,
      "ха": 275,
      "уже": 276,
      "сли": 277,
      "чно": 278,
      "дя": 279,
      "дол": 280,
      "ков": 281,
      "ней": 282,
      "сы": 283,
      "сту": 284,
      "него": 285,
      "стра": 286,
      "Да": 287,
      "каз": 288,
      "сме": 289,
      "чего": 290,
      "шел": 291,
      "чем": 292,
      "Ка": 293,
      "жал": 294,
      "тельно": 295,
      "ным": 296,
      "Но": 297,
      "которы": 298,
      "ром": 299,
      "дет": 300,
      "вой": 301,
      "Ма": 302,
      "вно": 303,
      "дел": 304,
      "лове": 305,
      "нее": 306,
      "ер": 307,
      "мал": 308,
      "боль": 309,
      "вать": 310,
      "вст": 311,
      "тя": 312,
      "дела": 313,
      "смо": 314,
      "пя": 315,
      "без": 316,
      "лись": 317,
      "шу": 318,
      "проси": 319,
      "ных": 320,
      "челове": 321,
      "пы": 322,
      "стоя": 323,
      "нов": 324,
      "ров": 325,
      "ался": 326,
      "пред": 327,
      "ную": 328,
      "оче": 329,
      "тем": 330,
      "глаза": 331,
      "ща": 332,
      "ним": 333,
      "цо": 334,
      "гра": 335,
      "для": 336,
      "вре": 337,
      "стро": 338,
      "три": 339,
      "зо": 340,
      "стве": 341,
      "вле": 342,
      "вали": 343,
      "чал": 344,
      "перь": 345,
      "фи": 346,
      "кры": 347,
      "пол": 348,
      "кон": 349,
      "ют": 350,
      "или": 351,
      "од": 352,
      "чер": 353,
      "нный": 354,
      "ясь": 355,
      "вала": 356,
      "све": 357,
      "кто": 358,
      "быть": 359,
      "им": 360,
      "сно": 361,
      "они": 362,
      "лось": 363,
      "чь": 364,
      "друг": 365,
      "того": 366,
      "была": 367,
      "ге": 368,
      "себя": 369,
      "ци": 370,
      "отве": 371,
      "рез": 372,
      "оста": 373,
      "тно": 374,
      "ис": 375,
      "Са": 376,
      "кра": 377,
      "очень": 378,
      "ется": 379,
      "вот": 380,
      "дер": 381,
      "нима": 382,
      "пле": 383,
      "пер": 384,
      "пла": 385,
      "дал": 386,
      "сты": 387,
      "зы": 388,
      "шо": 389,
      "нем": 390,
      "эти": 391,
      "теперь": 392,
      "жен": 393,
      "ез": 394,
      "нет": 395,
      "дин": 396,
      "жет": 397,
      "мол": 398,
      "вя": 399,
      "зи": 400,
      "Она": 401,
      "алось": 402,
      "мой": 403,
      "дей": 404,
      "нии": 405,
      "дом": 406,
      "кого": 407,
      "Та": 408,
      "Ко": 409,
      "жу": 410,
      "нови": 411,
      "кое": 412,
      "спроси": 413,
      "даже": 414,
      "бра": 415,
      "говорил": 416,
      "после": 417,
      "сла": 418,
      "кри": 419,
      "кру": 420,
      "бле": 421,
      "кие": 422,
      "бро": 423,
      "шка": 424,
      "которо": 425,
      "кий": 426,
      "цы": 427,
      "вс": 428,
      "над": 429,
      "кая": 430,
      "Это": 431,
      "цу": 432,
      "ете": 433,
      "Ва": 434,
      "жде": 435,
      "вля": 436,
      "вас": 437,
      "хи": 438,
      "зя": 439,
      "тра": 440,
      "тому": 441,
      "име": 442,
      "нием": 443,
      "кре": 444,
      "слы": 445,
      "Ну": 446,
      "поло": 447,
      "пять": 448,
      "нд": 449,
      "чтобы": 450,
      "были": 451,
      "воль": 452,
      "хот": 453,
      "ками": 454,
      "доро": 455,
      "обра": 456,
      "вам": 457,
      "сер": 458,
      "час": 459,
      "За": 460,
      "ний": 461,
      "вый": 462,
      "вше": 463,
      "ин": 464,
      "Ни": 465,
      "заме": 466,
      "сторо": 467,
      "само": 468,
      "гру": 469,
      "жиз": 470,
      "улы": 471,
      "ном": 472,
      "себе": 473,
      "глу": 474,
      "крас": 475,
      "нные": 476,
      "тил": 477,
      "хоро": 478,
      "смотре": 479,
      "ский": 480,
      "ались": 481,
      "них": 482,
      "Что": 483,
      "ющи": 484,
      "стви": 485,
      "Вы": 486,
      "Ива": 487,
      "лицо": 488,
      "сказала": 489,
      "ное": 490,
      "нулся": 491,
      "каза": 492,
      "Мо": 493,
      "сколько": 494,
      "ник": 495,
      "алась": 496,
      "перед": 497,
      "род": 498,
      "нной": 499,
      "где": 500,
      "Ра": 501,
      "дума": 502,
      "вдруг": 503,
      "день": 504,
      "всем": 505,
      "мог": 506,
      "вство": 507,
      "ев": 508,
      "одно": 509,
      "тру": 510,
      "друго": 511,
      "может": 512,
      "ску": 513,
      "подо": 514,
      "коне": 515,
      "мер": 516,
      "пря": 517,
      "лов": 518,
      "ким": 519,
      "боле": 520,
      "этого": 521,
      "если": 522,
      "Але": 523,
      "два": 524,
      "надо": 525,
      "время": 526,
      "кро": 527,
      "бла": 528,
      "будет": 529,
      "ничего": 530,
      "моло": 531,
      "чувство": 532,
      "Сам": 533,
      "шла": 534,
      "ства": 535,
      "Па": 536,
      "будь": 537,
      "То": 538,
      "там": 539,
      "человек": 540,
      "ской": 541,
      "ешь": 542,
      "бли": 543,
      "тол": 544,
      "сказа": 545,
      "спе": 546,
      "тот": 547,
      "есть": 548,
      "мину": 549,
      "хоте": 550,
      "вич": 551,
      "люби": 552,
      "ху": 553,
      "той": 554,
      "думал": 555,
      "гин": 556,
      "нула": 557,
      "полу": 558,
      "ливо": 559,
      "комна": 560,
      "стью": 561,
      "тво": 562,
      "кня": 563,
      "уж": 564,
      "поч": 565,
      "нас": 566,
      "ню": 567,
      "рю": 568,
      "тер": 569,
      "опять": 570,
      "сам": 571,
      "тебя": 572,
      "пло": 573,
      "Го": 574,
      "стал": 575,
      "Ве": 576,
      "вели": 577,
      "вшись": 578,
      "йте": 579,
      "нным": 580,
      "нибудь": 581,
      "ок": 582,
      "этот": 583,
      "Про": 584,
      "две": 585,
      "\",": 586,
      "ского": 587,
      "зу": 588,
      "нное": 589,
      "ника": 590,
      "можно": 591,
      "вся": 592,
      "тебе": 593,
      "бой": 594,
      "тро": 595,
      "Вот": 596,
      "вто": 597,
      "спросил": 598,
      "вра": 599,
      "нных": 600,
      "ких": 601,
      "Как": 602,
      "ными": 603,
      "дело": 604,
      "обе": 605,
      "тут": 606,
      "буд": 607,
      "Во": 608,
      "жда": 609,
      "зе": 610,
      "тал": 611,
      "вался": 612,
      "рти": 613,
      "Ли": 614,
      "слова": 615,
      "стре": 616,
      "мни": 617,
      "тоже": 618,
      "ех": 619,
      "улыб": 620,
      "ран": 621,
      "Бо": 622,
      "взгля": 623,
      "прия": 624,
      "потом": 625,
      "лет": 626,
      "дво": 627,
      "Ты": 628,
      "дов": 629,
      "будто": 630,
      "Ро": 631,
      "фа": 632,
      "вил": 633,
      "благо": 634,
      "образ": 635,
      "ман": 636,
      "сча": 637,
      "До": 638,
      "зь": 639,
      "ках": 640,
      "виде": 641,
      "стя": 642,
      "дня": 643,
      "потому": 644,
      "чет": 645,
      "Пет": 646,
      "жду": 647,
      "нного": 648,
      "один": 649,
      "вало": 650,
      "гор": 651,
      "вший": 652,
      "всех": 653,
      "чала": 654,
      "дви": 655,
      "Алек": 656,
      "кла": 657,
      "щу": 658,
      "нове": 659,
      "всегда": 660,
      "который": 661,
      "вь": 662,
      "шли": 663,
      "которые": 664,
      "Все": 665,
      "зем": 666,
      "ожи": 667,
      "хва": 668,
      "своей": 669,
      "ор": 670,
      ",--": 671,
      "Гри": 672,
      "шно": 673,
      "тив": 674,
      "сей": 675,
      "рая": 676,
      "сказать": 677,
      "теле": 678,
      "стно": 679,
      "вет": 680,
      "больше": 681,
      "вым": 682,
      "реши": 683,
      "более": 684,
      "дро": 685,
      "нув": 686,
      "тор": 687,
      "этом": 688,
      "руки": 689,
      "продол": 690,
      "дра": 691,
      "жение": 692,
      "уме": 693,
      "шая": 694,
      "шки": 695,
      "лег": 696,
      "Ми": 697,
      "бес": 698,
      "нная": 699,
      "силь": 700,
      "свою": 701,
      "Со": 702,
      "несколько": 703,
      "поня": 704,
      "сом": 705,
      "весе": 706,
      "осо": 707,
      "ред": 708,
      "гро": 709,
      "много": 710,
      "встре": 711,
      "одна": 712,
      "гори": 713,
      "тов": 714,
      "руку": 715,
      "Самгин": 716,
      "почти": 717,
      "прав": 718,
      "нам": 719,
      "точно": 720,
      "чай": 721,
      "дой": 722,
      "свои": 723,
      "взя": 724,
      "вые": 725,
      "види": 726,
      "ум": 727,
      "нию": 728,
      "тый": 729,
      "спи": 730,
      "вари": 731,
      "доволь": 732,
      "казалось": 733,
      "сол": 734,
      "чему": 735,
      "рот": 736,
      "знаю": 737,
      "конец": 738,
      "Ле": 739,
      "буду": 740,
      "тогда": 741,
      "кнул": 742,
      "рил": 743,
      "сни": 744,
      "поз": 745,
      "Нет": 746,
      "вает": 747,
      "рей": 748,
      "чка": 749,
      "пусти": 750,
      "ведь": 751,
      "дать": 752,
      "чувст": 753,
      "совер": 754,
      "нова": 755,
      "женщи": 756,
      "коле": 757,
      "нему": 758,
      "куда": 759,
      "мени": 760,
      "Так": 761,
      "видел": 762,
      "подня": 763,
      "чки": 764,
      "паль": 765,
      "ъя": 766,
      "кую": 767,
      "обо": 768,
      "серд": 769,
      "Анд": 770,
      "луч": 771,
      "месте": 772,
      "голову": 773,
      "фе": 774,
      "пор": 775,
      "кар": 776,
      "обще": 777,
      "слыш": 778,
      "спра": 779,
      "кло": 780,
      "обы": 781,
      "нт": 782,
      "уди": 783,
      "Григори": 784,
      "стави": 785,
      "рал": 786,
      "вых": 787,
      "При": 788,
      "какой": 789,
      "тихо": 790,
      "вол": 791,
      "пой": 792,
      "любо": 793,
      "ень": 794,
      "пал": 795,
      "дум": 796,
      "зде": 797,
      "ья": 798,
      "через": 799,
      "изве": 800,
      "говорить": 801,
      "могу": 802,
      "лый": 803,
      "ноги": 804,
      "людей": 805,
      "Нико": 806,
      "вое": 807,
      "Ан": 808,
      "Фе": 809,
      "знал": 810,
      "коло": 811,
      "сов": 812,
      "жала": 813,
      "свое": 814,
      "прави": 815,
      "бно": 816,
      "люди": 817,
      "послед": 818,
      "спокой": 819,
      "верь": 820,
      "хотя": 821,
      "уда": 822,
      "ваясь": 823,
      "други": 824,
      "чтоб": 825,
      "чески": 826,
      "лом": 827,
      "пока": 828,
      "просто": 829,
      "чит": 830,
      "радо": 831,
      "жить": 832,
      "жды": 833,
      "шей": 834,
      "жизни": 835,
      "Кли": 836,
      "долго": 837,
      "ар": 838,
      "Пе": 839,
      "весь": 840,
      "лица": 841,
      "вла": 842,
      "соверше": 843,
      "ан": 844,
      "эта": 845,
      "всё": 846,
      "между": 847,
      "вую": 848,
      "стари": 849,
      "жела": 850,
      "нуть": 851,
      "чита": 852,
      "тря": 853,
      "тери": 854,
      "жил": 855,
      "ост": 856,
      "гром": 857,
      "ут": 858,
      "дере": 859,
      "делать": 860,
      "совсем": 861,
      "жизнь": 862,
      "хорошо": 863,
      "этой": 864,
      "От": 865,
      "другой": 866,
      "говорила": 867,
      "своего": 868,
      "казы": 869,
      "уби": 870,
      "воло": 871,
      "носи": 872,
      "дали": 873,
      "зло": 874,
      "дома": 875,
      "особе": 876,
      "чая": 877,
      "понима": 878,
      "ужа": 879,
      "госпо": 880,
      "объя": 881,
      "Лю": 882,
      "ваться": 883,
      "жения": 884,
      "води": 885,
      "тец": 886,
      "уве": 887,
      "дли": 888,
      "высо": 889,
      "мина": 890,
      "сами": 891,
      "шего": 892,
      "против": 893,
      "всего": 894,
      "останови": 895,
      "смотрел": 896,
      "свя": 897,
      "ская": 898,
      "лоша": 899,
      "ье": 900,
      "нную": 901,
      "никогда": 902,
      "Те": 903,
      "малень": 904,
      "кни": 905,
      "мать": 906,
      "шло": 907,
      "деле": 908,
      "холо": 909,
      "чил": 910,
      "снова": 911,
      "горо": 912,
      "ехал": 913,
      "лице": 914,
      "нулась": 915,
      "знако": 916,
      "бот": 917,
      "эту": 918,
      "вом": 919,
      "вспо": 920,
      "откры": 921,
      "ственно": 922,
      "юще": 923,
      "Мы": 924,
      "нце": 925,
      "пись": 926,
      "молча": 927,
      "говорит": 928,
      "вшие": 929,
      "гре": 930,
      "такой": 931,
      "вопро": 932,
      "щего": 933,
      "вого": 934,
      "глазами": 935,
      "хозя": 936,
      "дели": 937,
      "чали": 938,
      "стало": 939,
      "зад": 940,
      "але": 941,
      "чера": 942,
      "кор": 943,
      "сейчас": 944,
      "воро": 945,
      "мое": 946,
      "минуту": 947,
      "соб": 948,
      "Никола": 949,
      "юсь": 950,
      "вид": 951,
      "уй": 952,
      "человека": 953,
      "писа": 954,
      "сви": 955,
      "рази": 956,
      "самы": 957,
      "свет": 958,
      "ходя": 959,
      "Мар": 960,
      "быстро": 961,
      "зву": 962,
      "доб": 963,
      "деся": 964,
      "ходил": 965,
      "здесь": 966,
      "дем": 967,
      "стой": 968,
      "давно": 969,
      "держа": 970,
      "рус": 971,
      "тяже": 972,
      "ною": 973,
      "лучше": 974,
      "дверь": 975,
      "броси": 976,
      "уго": 977,
      "ству": 978,
      "льзя": 979,
      "ются": 980,
      "ском": 981,
      "тые": 982,
      "оби": 983,
      "Ме": 984,
      "жется": 985,
      "ских": 986,
      "чувствовал": 987,
      "Ку": 988,
      "нными": 989,
      "тотчас": 990,
      "чку": 991,
      "разгово": 992,
      "Се": 993,
      "сне": 994,
      "совершенно": 995,
      "рую": 996,
      "ников": 997,
      "ставля": 998,
      "вших": 999,
      "Григорий": 1000,
      "кому": 1001,
      "вне": 1002,
      "голос": 1003,
      "рва": 1004,
      "учи": 1005,
      "блю": 1006,
      "таки": 1007,
      "сказы": 1008,
      "Де": 1009,
      "хотел": 1010,
      "выра": 1011,
      "наде": 1012,
      "нами": 1013,
      "фице": 1014,
      "всю": 1015,
      "ступи": 1016,
      "начал": 1017,
      "Ду": 1018,
      "вел": 1019,
      "вин": 1020,
      "сдел": 1021,
      "рабо": 1022,
      "вшего": 1023,
      "Они": 1024,
      "сю": 1025,
      "Когда": 1026,
      "спраши": 1027,
      "свой": 1028,
      "сердце": 1029,
      "чик": 1030,
      "ших": 1031,
      "возь": 1032,
      "ожида": 1033,
      "Ар": 1034,
      "Хо": 1035,
      "сму": 1036,
      "Из": 1037,
      "стар": 1038,
      "кова": 1039,
      "шком": 1040,
      "тере": 1041,
      "видно": 1042,
      "которой": 1043,
      "дву": 1044,
      "поле": 1045,
      "цать": 1046,
      "наконец": 1047,
      "реди": 1048,
      "большо": 1049,
      "приня": 1050,
      "муж": 1051,
      "теля": 1052,
      "сили": 1053,
      "ом": 1054,
      "рен": 1055,
      "ские": 1056,
      "пыт": 1057,
      "дова": 1058,
      "воск": 1059,
      "счаст": 1060,
      "спа": 1061,
      "кою": 1062,
      "недо": 1063,
      "произ": 1064,
      "гом": 1065,
      "место": 1066,
      "оде": 1067,
      "нька": 1068,
      "вни": 1069,
      "лые": 1070,
      "ночь": 1071,
      "шую": 1072,
      "вались": 1073,
      "Раз": 1074,
      "мед": 1075,
      "гото": 1076,
      "ток": 1077,
      "своих": 1078,
      "нин": 1079,
      "Ви": 1080,
      "нах": 1081,
      "валась": 1082,
      "бор": 1083,
      "мыс": 1084,
      "похо": 1085,
      "шку": 1086,
      "тился": 1087,
      "внима": 1088,
      "тая": 1089,
      "гал": 1090,
      "вместе": 1091,
      "нужно": 1092,
      "Алекса": 1093,
      "ции": 1094,
      "убе": 1095,
      "маль": 1096,
      "ними": 1097,
      "стол": 1098,
      "смея": 1099,
      "такое": 1100,
      "жел": 1101,
      "глаз": 1102,
      "Ба": 1103,
      "особенно": 1104,
      "коро": 1105,
      "бога": 1106,
      "хом": 1107,
      "круг": 1108,
      "тила": 1109,
      "дале": 1110,
      "которая": 1111,
      "Клим": 1112,
      "повто": 1113,
      "втра": 1114,
      "которого": 1115,
      "сама": 1116,
      "офице": 1117,
      "нельзя": 1118,
      "нья": 1119,
      "жали": 1120,
      "пожал": 1121,
      "суда": 1122,
      "Лу": 1123,
      "нес": 1124,
      "своим": 1125,
      "сси": 1126,
      "слуша": 1127,
      "стоял": 1128,
      "прямо": 1129,
      "моя": 1130,
      "чина": 1131,
      "кнове": 1132,
      "Александ": 1133,
      "рый": 1134,
      "успе": 1135,
      "горе": 1136,
      "рой": 1137,
      "вос": 1138,
      "Мне": 1139,
      "серди": 1140,
      "сколь": 1141,
      "разу": 1142,
      "Мих": 1143,
      "),": 1144,
      "равно": 1145,
      "сня": 1146,
      "нач": 1147,
      "ший": 1148,
      "знать": 1149,
      "бере": 1150,
      "тю": 1151,
      "ством": 1152,
      "тон": 1153,
      "рова": 1154,
      "нра": 1155,
      "нович": 1156,
      "жало": 1157,
      "говоря": 1158,
      "еха": 1159,
      "бри": 1160,
      "ленно": 1161,
      "помни": 1162,
      "гая": 1163,
      "лой": 1164,
      "тить": 1165,
      "гляды": 1166,
      "которое": 1167,
      "кажется": 1168,
      "нер": 1169,
      "вери": 1170,
      "сове": 1171,
      "бур": 1172,
      "матери": 1173,
      "Миха": 1174,
      "оно": 1175,
      "отец": 1176,
      "этих": 1177,
      "даль": 1178,
      "пошел": 1179,
      "князь": 1180,
      "подумал": 1181,
      "сем": 1182,
      "знает": 1183,
      "глядя": 1184,
      "дох": 1185,
      "хоть": 1186,
      "скоро": 1187,
      "Бы": 1188,
      "вшей": 1189,
      "дил": 1190,
      "еди": 1191,
      "иск": 1192,
      "мало": 1193,
      "прежде": 1194,
      "ющий": 1195,
      "гости": 1196,
      "Ло": 1197,
      "мере": 1198,
      "вами": 1199,
      "клю": 1200,
      "рья": 1201,
      "обыкнове": 1202,
      "бою": 1203,
      "фран": 1204,
      "Сте": 1205,
      "мысли": 1206,
      "стала": 1207,
      "ино": 1208,
      "дете": 1209,
      "держи": 1210,
      "согла": 1211,
      "шие": 1212,
      "хло": 1213,
      "яви": 1214,
      "Пере": 1215,
      "прочем": 1216,
      "мет": 1217,
      "нье": 1218,
      "свобо": 1219,
      "шим": 1220,
      "приятно": 1221,
      "нею": 1222,
      "шал": 1223,
      "чат": 1224,
      "действи": 1225,
      "душе": 1226,
      "этим": 1227,
      "дни": 1228,
      "мор": 1229,
      "интере": 1230,
      "поро": 1231,
      "почему": 1232,
      "чуть": 1233,
      "наро": 1234,
      "горя": 1235,
      "возможно": 1236,
      "стов": 1237,
      "одной": 1238,
      "широ": 1239,
      "цве": 1240,
      "продолжал": 1241,
      "дите": 1242,
      "голосом": 1243,
      "вну": 1244,
      "шля": 1245,
      "ото": 1246,
      "твер": 1247,
      "завтра": 1248,
      "ква": 1249,
      "ницы": 1250,
      "боро": 1251,
      "какие": 1252,
      "исто": 1253,
      "спросила": 1254,
      "менно": 1255,
      "испу": 1256,
      "которых": 1257,
      "хе": 1258,
      "хра": 1259,
      "Ста": 1260,
      "дить": 1261,
      "гами": 1262,
      "ряд": 1263,
      "рно": 1264,
      "ница": 1265,
      "назад": 1266,
      "жна": 1267,
      "ит": 1268,
      "верх": 1269,
      "сел": 1270,
      "отвечал": 1271,
      "улыба": 1272,
      "мен": 1273,
      "кими": 1274,
      "одного": 1275,
      "кам": 1276,
      "рассказы": 1277,
      "щая": 1278,
      "Ах": 1279,
      "кли": 1280,
      "скри": 1281,
      "которую": 1282,
      "жать": 1283,
      "лен": 1284,
      "слишком": 1285,
      "рон": 1286,
      "сего": 1287,
      "ход": 1288,
      "конечно": 1289,
      "ответил": 1290,
      "мей": 1291,
      "смотри": 1292,
      "францу": 1293,
      "тех": 1294,
      "Андрей": 1295,
      "ское": 1296,
      "Сер": 1297,
      "Если": 1298,
      "добро": 1299,
      "след": 1300,
      "моей": 1301,
      "вста": 1302,
      "бума": 1303,
      "торо": 1304,
      "лая": 1305,
      "вышел": 1306,
      "пода": 1307,
      "Бу": 1308,
      "скую": 1309,
      "сма": 1310,
      "Степа": 1311,
      "Пь": 1312,
      "дре": 1313,
      "пис": 1314,
      "чиво": 1315,
      "рак": 1316,
      "гна": 1317,
      "нице": 1318,
      "именно": 1319,
      "пове": 1320,
      "город": 1321,
      "ваше": 1322,
      "солда": 1323,
      "Пьер": 1324,
      "помо": 1325,
      "побе": 1326,
      "головой": 1327,
      "начала": 1328,
      "Иванов": 1329,
      "щей": 1330,
      "ктор": 1331,
      "гли": 1332,
      "испо": 1333,
      "брат": 1334,
      "тых": 1335,
      "прекрас": 1336,
      "Петро": 1337,
      "дала": 1338,
      "скры": 1339,
      "сидел": 1340,
      "смотря": 1341,
      "Бе": 1342,
      "евна": 1343,
      "шеп": 1344,
      "руками": 1345,
      "графи": 1346,
      "Ведь": 1347,
      "видеть": 1348,
      "сот": 1349,
      "стали": 1350,
      "ден": 1351,
      "Че": 1352,
      "зре": 1353,
      "должен": 1354,
      "Ки": 1355,
      "хочу": 1356,
      "хле": 1357,
      "иг": 1358,
      "отца": 1359,
      "сед": 1360,
      "должно": 1361,
      "Пав": 1362,
      "телей": 1363,
      "роди": 1364,
      "тыся": 1365,
      "поме": 1366,
      "ступ": 1367,
      "мый": 1368,
      "медленно": 1369,
      "чать": 1370,
      "тки": 1371,
      "тым": 1372,
      "могла": 1373,
      "стей": 1374,
      "сюда": 1375,
      "кал": 1376,
      "цело": 1377,
      "Иван": 1378,
      "собой": 1379,
      "лишь": 1380,
      "комнате": 1381,
      "Андре": 1382,
      "года": 1383,
      "краси": 1384,
      "привы": 1385,
      "подви": 1386,
      "цев": 1387,
      "Варва": 1388,
      "товари": 1389,
      "Ната": 1390,
      "суще": 1391,
      "мом": 1392,
      "ил": 1393,
      "кол": 1394,
      "стья": 1395,
      "Фо": 1396,
      "думать": 1397,
      "Пу": 1398,
      "станови": 1399,
      "Мари": 1400,
      "Моск": 1401,
      "чный": 1402,
      "вод": 1403,
      "туда": 1404,
      "бре": 1405,
      "бер": 1406,
      "вспомни": 1407,
      "ехать": 1408,
      "знаете": 1409,
      "возвра": 1410,
      "креп": 1411,
      "ствие": 1412,
      "спу": 1413,
      "довольно": 1414,
      "ходит": 1415,
      "кричал": 1416,
      "игра": 1417,
      "вшая": 1418,
      "хов": 1419,
      "чной": 1420,
      "ясно": 1421,
      "какая": 1422,
      "нка": 1423,
      "дна": 1424,
      "жны": 1425,
      "двери": 1426,
      "ью": 1427,
      "роя": 1428,
      "Анна": 1429,
      "вают": 1430,
      "тами": 1431,
      "боя": 1432,
      "преж": 1433,
      "двух": 1434,
      "говорили": 1435,
      "зеле": 1436,
      "фу": 1437,
      "неу": 1438,
      "щий": 1439,
      "пья": 1440,
      "лым": 1441,
      "слово": 1442,
      "Теперь": 1443,
      "уви": 1444,
      "нном": 1445,
      "ноше": 1446,
      "йти": 1447,
      "времени": 1448,
      "однако": 1449,
      "говорю": 1450,
      "сдела": 1451,
      "мах": 1452,
      "кончи": 1453,
      "комнату": 1454,
      "Только": 1455,
      "нить": 1456,
      "свер": 1457,
      "скоре": 1458,
      "лест": 1459,
      "мной": 1460,
      "опа": 1461,
      "весело": 1462,
      "нок": 1463,
      "мило": 1464,
      "возду": 1465,
      "Давы": 1466,
      "яр": 1467,
      "нки": 1468,
      "кнула": 1469,
      "шед": 1470,
      "первый": 1471,
      "стороны": 1472,
      "мся": 1473,
      "столь": 1474,
      "стер": 1475,
      "Федо": 1476,
      "часто": 1477,
      "голу": 1478,
      "начина": 1479,
      "правда": 1480,
      "вчера": 1481,
      "запа": 1482,
      "нев": 1483,
      "вперед": 1484,
      "мысль": 1485,
      "Си": 1486,
      "Его": 1487,
      "золо": 1488,
      "среди": 1489,
      "коман": 1490,
      "жели": 1491,
      "верно": 1492,
      "сегодня": 1493,
      "мысле": 1494,
      "ъез": 1495,
      "моего": 1496,
      "право": 1497,
      "гина": 1498,
      "рукой": 1499,
      "поте": 1500,
      "повер": 1501,
      "тай": 1502,
      "случа": 1503,
      "ями": 1504,
      "состоя": 1505,
      "ники": 1506,
      "ницу": 1507,
      "приба": 1508,
      "слышал": 1509,
      "мая": 1510,
      "мяг": 1511,
      "тесь": 1512,
      "ским": 1513,
      "зов": 1514,
      "нули": 1515,
      "цами": 1516,
      "фор": 1517,
      "чей": 1518,
      "следу": 1519,
      "валось": 1520,
      "работ": 1521,
      "мужи": 1522,
      "вли": 1523,
      "хозяй": 1524,
      "воскли": 1525,
      "дный": 1526,
      "заня": 1527,
      "зер": 1528,
      "хотелось": 1529,
      "Ор": 1530,
      "Кня": 1531,
      "мимо": 1532,
      "слов": 1533,
      "сторону": 1534,
      "поли": 1535,
      "ходить": 1536,
      "рить": 1537,
      "четы": 1538,
      "дешь": 1539,
      "закры": 1540,
      "тан": 1541,
      "пола": 1542,
      "нувшись": 1543,
      "словно": 1544,
      "самом": 1545,
      "Ти": 1546,
      "таль": 1547,
      "своем": 1548,
      "рок": 1549,
      "мра": 1550,
      "ули": 1551,
      "ина": 1552,
      "думала": 1553,
      "кля": 1554,
      "души": 1555,
      "усме": 1556,
      "ньше": 1557,
      "нрави": 1558,
      "посе": 1559,
      "рядом": 1560,
      "мир": 1561,
      "заметил": 1562,
      "кажды": 1563,
      "пар": 1564,
      "хлю": 1565,
      "мои": 1566,
      "ступа": 1567,
      "самого": 1568,
      "прово": 1569,
      "строе": 1570,
      "пожалуй": 1571,
      "мг": 1572,
      "части": 1573,
      "места": 1574,
      "хоче": 1575,
      "предло": 1576,
      "госуда": 1577,
      "вается": 1578,
      "мар": 1579,
      "лез": 1580,
      "жем": 1581,
      "тел": 1582,
      "вай": 1583,
      "дам": 1584,
      "тать": 1585,
      "край": 1586,
      "уни": 1587,
      "никто": 1588,
      "котором": 1589,
      "говари": 1590,
      "ог": 1591,
      "посте": 1592,
      "ровна": 1593,
      "около": 1594,
      "пора": 1595,
      "пят": 1596,
      "Ла": 1597,
      "нил": 1598,
      "этому": 1599,
      "страш": 1600,
      "кров": 1601,
      "тия": 1602,
      "тала": 1603,
      "стара": 1604,
      "позво": 1605,
      "дут": 1606,
      "Тут": 1607,
      "ссо": 1608,
      "жена": 1609,
      "иногда": 1610,
      "сматри": 1611,
      "ренно": 1612,
      "жая": 1613,
      "Зна": 1614,
      "кори": 1615,
      "вен": 1616,
      "ности": 1617,
      "восто": 1618,
      "обла": 1619,
      "Ту": 1620,
      "заве": 1621,
      "вича": 1622,
      "тье": 1623,
      "мою": 1624,
      "кала": 1625,
      "терпе": 1626,
      "улыбаясь": 1627,
      "дель": 1628,
      "такие": 1629,
      "легко": 1630,
      "зво": 1631,
      "деву": 1632,
      "зачем": 1633,
      "Га": 1634,
      "уг": 1635,
      "неве": 1636,
      "мель": 1637,
      "Нехлю": 1638,
      "нимал": 1639,
      "Иванович": 1640,
      "лицом": 1641,
      "какое": 1642,
      "близ": 1643,
      "взял": 1644,
      "лок": 1645,
      "собою": 1646,
      "пала": 1647,
      "домой": 1648,
      "уми": 1649,
      "Кто": 1650,
      "кан": 1651,
      "меся": 1652,
      "тую": 1653,
      "смер": 1654,
      "сен": 1655,
      "мгнове": 1656,
      "крикнул": 1657,
      "кали": 1658,
      "правля": 1659,
      "гря": 1660,
      "деть": 1661,
      "ловна": 1662,
      "кси": 1663,
      "вез": 1664,
      "ладо": 1665,
      "зал": 1666,
      "вить": 1667,
      "сделать": 1668,
      "каж": 1669,
      "стару": 1670,
      "нео": 1671,
      "голоса": 1672,
      "кроме": 1673,
      "бил": 1674,
      "Передо": 1675,
      "мел": 1676,
      "язы": 1677,
      "дцать": 1678,
      "разве": 1679,
      "знаешь": 1680,
      "встал": 1681,
      "деньги": 1682,
      "разговор": 1683,
      "письмо": 1684,
      "серь": 1685,
      ",-": 1686,
      "тья": 1687,
      "читал": 1688,
      "лично": 1689,
      "чение": 1690,
      "проти": 1691,
      "кварти": 1692,
      "которым": 1693,
      "женщина": 1694,
      "крыль": 1695,
      "ласко": 1696,
      "Потом": 1697,
      "тка": 1698,
      "чке": 1699,
      "митри": 1700,
      "люб": 1701,
      "нью": 1702,
      "настоя": 1703,
      "созна": 1704,
      "счастли": 1705,
      "Гра": 1706,
      "обходи": 1707,
      "жением": 1708,
      "Под": 1709,
      "ально": 1710,
      "казался": 1711,
      "рий": 1712,
      "Дмитри": 1713,
      "няя": 1714,
      "мальчи": 1715,
      "пом": 1716,
      "сил": 1717,
      "бары": 1718,
      "благода": 1719,
      "ющие": 1720,
      "действительно": 1721,
      "большой": 1722,
      "комнаты": 1723,
      "вку": 1724,
      "дит": 1725,
      "чувству": 1726,
      "таким": 1727,
      "отноше": 1728,
      "удивле": 1729,
      "ить": 1730,
      "пры": 1731,
      "док": 1732,
      "испы": 1733,
      "рые": 1734,
      "тельный": 1735,
      "одну": 1736,
      "прият": 1737,
      "чные": 1738,
      "молодой": 1739,
      "бира": 1740,
      "скажу": 1741,
      "сквозь": 1742,
      "стом": 1743,
      "лых": 1744,
      "каким": 1745,
      "Николай": 1746,
      "сут": 1747,
      "жила": 1748,
      "дыха": 1749,
      "нена": 1750,
      "ющих": 1751,
      "двор": 1752,
      "смотреть": 1753,
      "окна": 1754,
      "дож": 1755,
      "подошел": 1756,
      "фо": 1757,
      "вила": 1758,
      "тора": 1759,
      "цкий": 1760,
      "рука": 1761,
      "шке": 1762,
      "чрез": 1763,
      "вече": 1764,
      "ич": 1765,
      "прости": 1766,
      "непре": 1767,
      "спокойно": 1768,
      "зави": 1769,
      "трево": 1770,
      "старо": 1771,
      "Ру": 1772,
      "тий": 1773,
      "жили": 1774,
      "громко": 1775,
      "цер": 1776,
      "вздох": 1777,
      "любовь": 1778,
      "нож": 1779,
      "рила": 1780,
      "пру": 1781,
      "наше": 1782,
      "щую": 1783,
      "ребе": 1784,
      "пил": 1785,
      "тах": 1786,
      "немного": 1787,
      "глубо": 1788,
      "доста": 1789,
      "тельство": 1790,
      "молчал": 1791,
      "нару": 1792,
      "находи": 1793,
      "шее": 1794,
      "думаю": 1795,
      "етер": 1796,
      "ваю": 1797,
      "вное": 1798,
      "окру": 1799,
      "вопрос": 1800,
      "глазах": 1801,
      "Одна": 1802,
      "винова": 1803,
      "ид": 1804,
      "стоит": 1805,
      "Марья": 1806,
      "вшую": 1807,
      "губы": 1808,
      "шта": 1809,
      "знала": 1810,
      "споко": 1811,
      "нился": 1812,
      "жении": 1813,
      "чить": 1814,
      "жит": 1815,
      "тяжело": 1816,
      "народ": 1817,
      "смотрела": 1818,
      "видимо": 1819,
      "Лит": 1820,
      "бь": 1821,
      "дне": 1822,
      "скор": 1823,
      "проговорил": 1824,
      "стан": 1825,
      "оба": 1826,
      "поря": 1827,
      "нько": 1828,
      "говорят": 1829,
      "нерал": 1830,
      "гах": 1831,
      "гло": 1832,
      "нюю": 1833,
      "поспе": 1834,
      "ите": 1835,
      "доме": 1836,
      "хочет": 1837,
      "друга": 1838,
      "сила": 1839,
      "Пра": 1840,
      "сия": 1841,
      "сра": 1842,
      "сомне": 1843,
      "других": 1844,
      "серьез": 1845,
      "глядел": 1846,
      "ставить": 1847,
      "вечер": 1848,
      "казал": 1849,
      "остановился": 1850,
      "далеко": 1851,
      "Михай": 1852,
      "поль": 1853,
      "ак": 1854,
      "реше": 1855,
      "шать": 1856,
      "памя": 1857,
      "сразу": 1858,
      "жите": 1859,
      "тое": 1860,
      "ван": 1861,
      "четыре": 1862,
      "гой": 1863,
      "назы": 1864,
      "потре": 1865,
      "бог": 1866,
      "фигу": 1867,
      "низ": 1868,
      "скло": 1869,
      "руках": 1870,
      "впол": 1871,
      "едва": 1872,
      "осве": 1873,
      "жо": 1874,
      "схва": 1875,
      "вольно": 1876,
      "смеш": 1877,
      "гать": 1878,
      "выми": 1879,
      "ция": 1880,
      "гнул": 1881,
      "Пан": 1882,
      "темно": 1883,
      "дая": 1884,
      "Левин": 1885,
      "оди": 1886,
      "другу": 1887,
      "странно": 1888,
      "отво": 1889,
      "евич": 1890,
      "ощу": 1891,
      "мые": 1892,
      "нулись": 1893,
      "печат": 1894,
      "вошел": 1895,
      "груди": 1896,
      "доса": 1897,
      "дия": 1898,
      "скать": 1899,
      "наш": 1900,
      "болез": 1901,
      "роятно": 1902,
      "испол": 1903,
      "протя": 1904,
      "тыми": 1905,
      "вшийся": 1906,
      "Ему": 1907,
      "ходили": 1908,
      "огром": 1909,
      "стру": 1910,
      "год": 1911,
      "счита": 1912,
      "чо": 1913,
      "красне": 1914,
      "молодо": 1915,
      "дался": 1916,
      "поя": 1917,
      "вскри": 1918,
      "нич": 1919,
      "Ортру": 1920,
      "вей": 1921,
      "уче": 1922,
      "ходила": 1923,
      "ворот": 1924,
      "призна": 1925,
      "молоды": 1926,
      "истори": 1927,
      "раздра": 1928,
      "руба": 1929,
      "шина": 1930,
      "значит": 1931,
      "держал": 1932,
      "улыбкой": 1933,
      "удиви": 1934,
      "свете": 1935,
      "француз": 1936,
      "ору": 1937,
      "удоволь": 1938,
      "неожида": 1939,
      "дав": 1940,
      "соба": 1941,
      "любви": 1942,
      "шко": 1943,
      "волю": 1944,
      "правле": 1945,
      "минут": 1946,
      "впрочем": 1947,
      "сторожно": 1948,
      "ющим": 1949,
      "самое": 1950,
      "Еле": 1951,
      "исче": 1952,
      "каждый": 1953,
      "зами": 1954,
      "душ": 1955,
      "Гово": 1956,
      "Алексе": 1957,
      "необходи": 1958,
      "ужас": 1959,
      "Арка": 1960,
      "щие": 1961,
      "вовсе": 1962,
      "бар": 1963,
      "Давыдов": 1964,
      "своему": 1965,
      "дене": 1966,
      "случи": 1967,
      "Кон": 1968,
      "Варвара": 1969,
      "Наташа": 1970,
      "меч": 1971,
      "цов": 1972,
      "Ге": 1973,
      "такая": 1974,
      "часа": 1975,
      "понимаю": 1976,
      "щих": 1977,
      "своими": 1978,
      "стый": 1979,
      "Петер": 1980,
      "корот": 1981,
      "опусти": 1982,
      "зап": 1983,
      "чами": 1984,
      "Серг": 1985,
      "люблю": 1986,
      "цати": 1987,
      "вшее": 1988,
      "Алексей": 1989,
      "щение": 1990,
      "гим": 1991,
      "Куту": 1992,
      "каби": 1993,
      "решительно": 1994,
      "волосы": 1995,
      "идти": 1996,
      "пример": 1997,
      "извест": 1998,
      "Фран": 1999,
      "ление": 2000,
      "сильно": 2001,
      "лова": 2002,
      "старик": 2003,
      "мили": 2004,
      "чайно": 2005,
      "семь": 2006,
      "сок": 2007,
      "началь": 2008,
      "покой": 2009,
      "пить": 2010,
      "вина": 2011,
      "таких": 2012,
      "смерти": 2013,
      "бормо": 2014,
      "посмотрел": 2015,
      "живо": 2016,
      "Яков": 2017,
      "скому": 2018,
      "скорее": 2019,
      "ждения": 2020,
      "ставле": 2021,
      "строй": 2022,
      "солнце": 2023,
      "сред": 2024,
      "тели": 2025,
      "другие": 2026,
      "Петербур": 2027,
      "здо": 2028,
      "окон": 2029,
      "Василь": 2030,
      "Дол": 2031,
      "пот": 2032,
      "дево": 2033,
      "гов": 2034,
      "запи": 2035,
      "ехали": 2036,
      "сделал": 2037,
      "хри": 2038,
      "вокруг": 2039,
      "деви": 2040,
      "лей": 2041,
      "тили": 2042,
      "бами": 2043,
      "Иль": 2044,
      "ждал": 2045,
      "грудь": 2046,
      "Ивановна": 2047,
      "пля": 2048,
      "ею": 2049,
      "подоб": 2050,
      "землю": 2051,
      "воспо": 2052,
      "причи": 2053,
      "ловко": 2054,
      "ствия": 2055,
      "льно": 2056,
      "После": 2057,
      "мною": 2058,
      "самой": 2059,
      "значи": 2060,
      "вар": 2061,
      "щения": 2062,
      "вижу": 2063,
      "отчая": 2064,
      "хотела": 2065,
      "забы": 2066,
      "моли": 2067,
      "дного": 2068,
      "глупо": 2069,
      "Может": 2070,
      "тобой": 2071,
      "согласи": 2072,
      "чек": 2073,
      "мучи": 2074,
      "нуло": 2075,
      "представля": 2076,
      "понять": 2077,
      "нке": 2078,
      "Росси": 2079,
      "востор": 2080,
      "гар": 2081,
      "дное": 2082,
      "проис": 2083,
      "известно": 2084,
      "пору": 2085,
      "затем": 2086,
      "будут": 2087,
      "заговорил": 2088,
      "чным": 2089,
      "ног": 2090,
      "наши": 2091,
      "всей": 2092,
      "стола": 2093,
      "ума": 2094,
      "увидел": 2095,
      "пали": 2096,
      "жки": 2097,
      "рассу": 2098,
      "рай": 2099,
      "рень": 2100,
      "роде": 2101,
      "вою": 2102,
      "зако": 2103,
      "рых": 2104,
      "шум": 2105,
      "стые": 2106,
      "надцать": 2107,
      "такого": 2108,
      "зади": 2109,
      "ления": 2110,
      "нность": 2111,
      "Хри": 2112,
      "многи": 2113,
      "чных": 2114,
      "вообще": 2115,
      "жь": 2116,
      "лки": 2117,
      "дной": 2118,
      "Надо": 2119,
      "несмотря": 2120,
      "пришел": 2121,
      "жив": 2122,
      "покло": 2123,
      "попа": 2124,
      "тельным": 2125,
      "судь": 2126,
      "любил": 2127,
      "коф": 2128,
      "речи": 2129,
      "дания": 2130,
      "нности": 2131,
      "взгляд": 2132,
      "жку": 2133,
      "сын": 2134,
      "иску": 2135,
      "шен": 2136,
      "Гла": 2137,
      "ответ": 2138,
      "слезы": 2139,
      "зри": 2140,
      "тилась": 2141,
      "тен": 2142,
      "понял": 2143,
      "Князь": 2144,
      "помина": 2145,
      "дальше": 2146,
      "любопыт": 2147,
      "строго": 2148,
      "плы": 2149,
      "горь": 2150,
      "страшно": 2151,
      "рали": 2152,
      "чного": 2153,
      "пиро": 2154,
      "ске": 2155,
      "офицер": 2156,
      "испуга": 2157,
      "случае": 2158,
      "жете": 2159,
      "выше": 2160,
      "мых": 2161,
      "вшим": 2162,
      "лам": 2163,
      "вания": 2164,
      "ужасно": 2165,
      "ступле": 2166,
      "сооб": 2167,
      "лую": 2168,
      "могли": 2169,
      "бал": 2170,
      "весьма": 2171,
      "писал": 2172,
      "пти": 2173,
      "сына": 2174,
      "вольте": 2175,
      "ющей": 2176,
      "розо": 2177,
      "Пер": 2178,
      "вести": 2179,
      "стояла": 2180,
      "жный": 2181,
      "углу": 2182,
      "чок": 2183,
      "Васили": 2184,
      "здоро": 2185,
      "князя": 2186,
      "бель": 2187,
      "ночи": 2188,
      "Наталь": 2189,
      "тень": 2190,
      "бить": 2191,
      "тороп": 2192,
      "ува": 2193,
      "Об": 2194,
      "головы": 2195,
      "жные": 2196,
      "шала": 2197,
      "каме": 2198,
      "просил": 2199,
      "смеялся": 2200,
      "вдо": 2201,
      "сл": 2202,
      "Алеша": 2203,
      "мов": 2204,
      "слушал": 2205,
      "огля": 2206,
      "показы": 2207,
      "солдат": 2208,
      "Петрович": 2209,
      "кле": 2210,
      "жным": 2211,
      "небо": 2212,
      "накло": 2213,
      "земле": 2214,
      "поднял": 2215,
      "гали": 2216,
      "дней": 2217,
      "щим": 2218,
      "Пре": 2219,
      "ником": 2220,
      "приез": 2221,
      "стая": 2222,
      "рт": 2223,
      "утра": 2224,
      "ющего": 2225,
      "рался": 2226,
      "седа": 2227,
      "вернулся": 2228,
      "служ": 2229,
      "минуты": 2230,
      "Передонов": 2231,
      "опу": 2232,
      "нче": 2233,
      "рад": 2234,
      "бежал": 2235,
      "почувствовал": 2236,
      "Три": 2237,
      "сон": 2238,
      "возбу": 2239,
      "нку": 2240,
      "удо": 2241,
      "генерал": 2242,
      "тельное": 2243,
      "Же": 2244,
      "охот": 2245,
      "какого": 2246,
      "лыми": 2247,
      "ждать": 2248,
      "волне": 2249,
      "мым": 2250,
      "одним": 2251,
      "впечат": 2252,
      "хла": 2253,
      "щал": 2254,
      "женщины": 2255,
      "ставил": 2256,
      "жим": 2257,
      "объясни": 2258,
      "столько": 2259,
      "покры": 2260,
      "рах": 2261,
      "Петр": 2262,
      "пое": 2263,
      "нут": 2264,
      "воды": 2265,
      "кти": 2266,
      "сапо": 2267,
      "пь": 2268,
      "рачи": 2269,
      "мана": 2270,
      "разли": 2271,
      "голове": 2272,
      "образом": 2273,
      "жной": 2274,
      "идет": 2275,
      "неподви": 2276,
      "другое": 2277,
      "коли": 2278,
      "ими": 2279,
      "щее": 2280,
      "шине": 2281,
      "здоров": 2282,
      "неприятно": 2283,
      "показалось": 2284,
      "подро": 2285,
      "должны": 2286,
      "казалась": 2287,
      "голова": 2288,
      "дает": 2289,
      "людя": 2290,
      "Вер": 2291,
      "чения": 2292,
      "слег": 2293,
      "трех": 2294,
      "Мака": 2295,
      "Нехлюдов": 2296,
      "авто": 2297,
      "платье": 2298,
      "цию": 2299,
      "Там": 2300,
      "вслед": 2301,
      "какую": 2302,
      "Наконец": 2303,
      "стояли": 2304,
      "другого": 2305,
      "задум": 2306,
      "положение": 2307,
      "ого": 2308,
      "осторожно": 2309,
      "карти": 2310,
      "речь": 2311,
      "важно": 2312,
      "кула": 2313,
      "тело": 2314,
      "обя": 2315,
      "съ": 2316,
      "мого": 2317,
      "одном": 2318,
      "лежа": 2319,
      "лошадь": 2320,
      "имел": 2321,
      "улыбнулся": 2322,
      "дья": 2323,
      "шься": 2324,
      "любит": 2325,
      "собстве": 2326,
      "нежно": 2327,
      "пел": 2328,
      "самый": 2329,
      "шкой": 2330,
      "нечего": 2331,
      "лошадей": 2332,
      "узнал": 2333,
      "запла": 2334,
      "жени": 2335,
      "часов": 2336,
      "сад": 2337,
      "потеря": 2338,
      "лав": 2339,
      "душно": 2340,
      "жар": 2341,
      "граф": 2342,
      "господа": 2343,
      "слегка": 2344,
      "оши": 2345,
      "жий": 2346,
      "Бори": 2347,
      "Лужи": 2348,
      "жены": 2349,
      "нуться": 2350,
      "музы": 2351,
      "печ": 2352,
      "ужели": 2353,
      "чий": 2354,
      "дная": 2355,
      "дур": 2356,
      "цем": 2357,
      "Через": 2358,
      "Бер": 2359,
      "Оче": 2360,
      "Пнин": 2361,
      "Сон": 2362,
      "наве": 2363,
      "обре": 2364,
      "Чер": 2365,
      "дороги": 2366,
      "хотите": 2367,
      "казать": 2368,
      "рина": 2369,
      "разуме": 2370,
      "Акси": 2371,
      "вероятно": 2372,
      "пера": 2373,
      "скочил": 2374,
      "зная": 2375,
      "тельной": 2376,
      "крови": 2377,
      "исти": 2378,
      "дев": 2379,
      "господин": 2380,
      "писать": 2381,
      "детей": 2382,
      "уз": 2383,
      "стры": 2384,
      "пригла": 2385,
      "замеча": 2386,
      "внезап": 2387,
      "рия": 2388,
      "слуши": 2389,
      "щаясь": 2390,
      "бол": 2391,
      "обяза": 2392,
      "нди": 2393,
      "необыкнове": 2394,
      "сидела": 2395,
      "изви": 2396,
      "торже": 2397,
      "хочешь": 2398,
      "исчез": 2399,
      "мане": 2400,
      "дым": 2401,
      "Степан": 2402,
      "уте": 2403,
      "усили": 2404,
      "нос": 2405,
      "подле": 2406,
      "Без": 2407,
      "явля": 2408,
      "защи": 2409,
      "губер": 2410,
      "Самгина": 2411,
      "чрезвы": 2412,
      "воскликнул": 2413,
      "нечно": 2414,
      "заку": 2415,
      "полови": 2416,
      "рубле": 2417,
      "рами": 2418,
      "шек": 2419,
      "дости": 2420,
      "вышла": 2421,
      "уро": 2422,
      "пан": 2423,
      "жале": 2424,
      "Еще": 2425,
      "рях": 2426,
      "решил": 2427,
      "Врон": 2428,
      "дея": 2429,
      "Впрочем": 2430,
      "стри": 2431,
      "заклю": 2432,
      "нях": 2433,
      "ежели": 2434,
      "лка": 2435,
      "лежал": 2436,
      "моих": 2437,
      "ческой": 2438,
      "слови": 2439,
      "двадцать": 2440,
      "Госпо": 2441,
      "ющее": 2442,
      "Чего": 2443,
      "отправи": 2444,
      "зно": 2445,
      "постоя": 2446,
      "мужа": 2447,
      "измени": 2448,
      "нали": 2449,
      "нется": 2450,
      "разо": 2451,
      "един": 2452,
      "умер": 2453,
      "Ростов": 2454,
      "влю": 2455,
      "тит": 2456,
      "ушел": 2457,
      "приме": 2458,
      "руке": 2459,
      "сади": 2460,
      "говор": 2461,
      "господи": 2462,
      "чен": 2463,
      "непременно": 2464,
      "дливо": 2465,
      "кт": 2466,
      "уча": 2467,
      "наи": 2468,
      "забот": 2469,
      "мент": 2470,
      "окно": 2471,
      "села": 2472,
      "жешь": 2473,
      "вырази": 2474,
      "приехал": 2475,
      "пах": 2476,
      "очевидно": 2477,
      "вна": 2478,
      "опре": 2479,
      "вшиеся": 2480,
      "коль": 2481,
      "дети": 2482,
      "Где": 2483,
      "ногу": 2484,
      "трудно": 2485,
      "Фома": 2486,
      "тку": 2487,
      "повторя": 2488,
      "огляды": 2489,
      "площа": 2490,
      "дор": 2491,
      "крепко": 2492,
      "Один": 2493,
      "кур": 2494,
      "щик": 2495,
      "ибо": 2496,
      "нна": 2497,
      "лад": 2498,
      "воду": 2499,
      "жей": 2500,
      "отда": 2501,
      "переди": 2502,
      "секу": 2503,
      "вспы": 2504,
      "тера": 2505,
      "дога": 2506,
      "сере": 2507,
      "трен": 2508,
      "сце": 2509,
      "рук": 2510,
      "прошло": 2511,
      "харак": 2512,
      "бля": 2513,
      "чкой": 2514,
      "видела": 2515,
      "принима": 2516,
      "Кре": 2517,
      "батю": 2518,
      "также": 2519,
      "цом": 2520,
      "остро": 2521,
      "чисто": 2522,
      "време": 2523,
      "рала": 2524,
      "сна": 2525,
      "жесто": 2526,
      "мас": 2527,
      "никак": 2528,
      "сторон": 2529,
      "зубы": 2530,
      "чувства": 2531,
      "лошади": 2532,
      "десять": 2533,
      "арми": 2534,
      "оты": 2535,
      "кать": 2536,
      "никого": 2537,
      "вае": 2538,
      "нта": 2539,
      "най": 2540,
      "доктор": 2541,
      "сея": 2542,
      "тали": 2543,
      "вообра": 2544,
      "городе": 2545,
      "Пье": 2546,
      "цвет": 2547,
      "лоб": 2548,
      "брата": 2549,
      "блестя": 2550,
      "дю": 2551,
      "нашего": 2552,
      "нику": 2553,
      "всеми": 2554,
      "счасти": 2555,
      "тились": 2556,
      "мую": 2557,
      "прибли": 2558,
      "гай": 2559,
      "мерт": 2560,
      "поез": 2561,
      "мона": 2562,
      "прибавил": 2563,
      "столе": 2564,
      "нному": 2565,
      "вспомнил": 2566,
      "бормотал": 2567,
      "вание": 2568,
      "дороге": 2569,
      "четвер": 2570,
      "Елена": 2571,
      "беспо": 2572,
      "денег": 2573,
      "гну": 2574,
      "Дро": 2575,
      "поры": 2576,
      "моему": 2577,
      "чество": 2578,
      "вечера": 2579,
      "отвечала": 2580,
      "ехала": 2581,
      "аре": 2582,
      "Разве": 2583,
      "успел": 2584,
      "воспомина": 2585,
      "нца": 2586,
      "чие": 2587,
      "ногами": 2588,
      "бывало": 2589,
      "услы": 2590,
      "клу": 2591,
      "праз": 2592,
      "наблю": 2593,
      "вор": 2594,
      "воли": 2595,
      "сердито": 2596,
      "барыш": 2597,
      "хода": 2598,
      "Хоро": 2599,
      "улице": 2600,
      "взглядом": 2601,
      "оскор": 2602,
      "сердца": 2603,
      "пого": 2604,
      "Расколь": 2605,
      "торопливо": 2606,
      "яс": 2607,
      "дят": 2608,
      "отра": 2609,
      "наз": 2610,
      "парти": 2611,
      "пли": 2612,
      "тою": 2613,
      "присут": 2614,
      "иначе": 2615,
      "гне": 2616,
      "пошла": 2617,
      "поцело": 2618,
      "шин": 2619,
      "выражение": 2620,
      "----": 2621,
      "стье": 2622,
      "Почему": 2623,
      "возра": 2624,
      "забо": 2625,
      "бок": 2626,
      "дорогу": 2627,
      "треть": 2628,
      "столу": 2629,
      "Зачем": 2630,
      "вниз": 2631,
      "повторил": 2632,
      "Ино": 2633,
      "Ре": 2634,
      "хал": 2635,
      "ниях": 2636,
      "плохо": 2637,
      "намере": 2638,
      "тела": 2639,
      "лицу": 2640,
      "рин": 2641,
      "нял": 2642,
      "избе": 2643,
      "Тогда": 2644,
      "короле": 2645,
      "рью": 2646,
      "вшихся": 2647,
      "дому": 2648,
      "тур": 2649,
      "взглянул": 2650,
      "Дуня": 2651,
      "гимна": 2652,
      "узна": 2653,
      "соеди": 2654,
      "требо": 2655,
      "обратился": 2656,
      "всякий": 2657,
      "усмех": 2658,
      "Пи": 2659,
      "Слу": 2660,
      "бом": 2661,
      "богу": 2662,
      "собра": 2663,
      "нила": 2664,
      "будем": 2665,
      "Федоро": 2666,
      "Ничего": 2667,
      "спокои": 2668,
      "тр": 2669,
      "душу": 2670,
      "вшими": 2671,
      "красно": 2672,
      "раза": 2673,
      "нина": 2674,
      "доче": 2675,
      "тин": 2676,
      "силы": 2677,
      "смерть": 2678,
      "револю": 2679,
      "вяз": 2680,
      "угол": 2681,
      "пожи": 2682,
      "несе": 2683,
      "занима": 2684,
      "кин": 2685,
      "прос": 2686,
      "шею": 2687,
      "Очень": 2688,
      "старый": 2689,
      "города": 2690,
      "тный": 2691,
      "трепе": 2692,
      "бело": 2693,
      "должна": 2694,
      "вечером": 2695,
      "нду": 2696,
      "сухо": 2697,
      "степе": 2698,
      "сосед": 2699,
      "уста": 2700,
      "приходи": 2701,
      "ад": 2702,
      "вон": 2703,
      "рился": 2704,
      "молчали": 2705,
      "другим": 2706,
      "дные": 2707,
      "гуля": 2708,
      "англи": 2709,
      "вспомина": 2710,
      "случилось": 2711,
      "невольно": 2712,
      "каких": 2713,
      "дется": 2714,
      "женный": 2715,
      "случай": 2716,
      "Ортруда": 2717,
      "куп": 2718,
      "поспешно": 2719,
      "Уж": 2720,
      "наме": 2721,
      "дура": 2722,
      "бывает": 2723,
      "дива": 2724,
      "шил": 2725,
      "тельства": 2726,
      "генер": 2727,
      "Гру": 2728,
      "блу": 2729,
      "чная": 2730,
      "живу": 2731,
      "любез": 2732,
      "думы": 2733,
      "осталь": 2734,
      "ниями": 2735,
      "холодно": 2736,
      "необходимо": 2737,
      "ново": 2738,
      "спосо": 2739,
      "ствием": 2740,
      "другом": 2741,
      "спрашивал": 2742,
      "деля": 2743,
      "дами": 2744,
      "конце": 2745,
      "существо": 2746,
      "земли": 2747,
      "Стра": 2748,
      "това": 2749,
      "непри": 2750,
      "вале": 2751,
      "всему": 2752,
      "кровь": 2753,
      "другую": 2754,
      "рту": 2755,
      "обма": 2756,
      "полков": 2757,
      "ктора": 2758,
      "беспокой": 2759,
      "возрази": 2760,
      "чила": 2761,
      "утром": 2762,
      "Было": 2763,
      "нау": 2764,
      "поля": 2765,
      "рав": 2766,
      "надобно": 2767,
      "жие": 2768,
      "пожалуйста": 2769,
      "шали": 2770,
      "нашел": 2771,
      "рили": 2772,
      "ступил": 2773,
      "тей": 2774,
      "жай": 2775,
      "веле": 2776,
      "отли": 2777,
      "ждение": 2778,
      "Соня": 2779,
      "виз": 2780,
      "дила": 2781,
      "нями": 2782,
      "справе": 2783,
      "твердо": 2784,
      "зра": 2785,
      "шить": 2786,
      "Однако": 2787,
      "вшему": 2788,
      "могло": 2789,
      "ласково": 2790,
      "возле": 2791,
      "вяза": 2792,
      "Прокоф": 2793,
      "внимательно": 2794,
      "нато": 2795,
      "вполне": 2796,
      "закричал": 2797,
      "семей": 2798,
      "щен": 2799,
      "сва": 2800,
      "ради": 2801,
      "раньше": 2802,
      "чаю": 2803,
      "дочь": 2804,
      "Нежда": 2805,
      "поднима": 2806,
      "лиш": 2807,
      "зве": 2808,
      "узнать": 2809,
      "вайте": 2810,
      "тывал": 2811,
      "глав": 2812,
      "словом": 2813,
      "клады": 2814,
      "ческие": 2815,
      "лку": 2816,
      "Митя": 2817,
      "невозможно": 2818,
      "капи": 2819,
      "нынче": 2820,
      "чное": 2821,
      "нец": 2822,
      "Александро": 2823,
      "дама": 2824,
      "кух": 2825,
      "следо": 2826,
      "Катери": 2827,
      "мире": 2828,
      "десяти": 2829,
      "рам": 2830,
      "профе": 2831,
      "казаков": 2832,
      "Соф": 2833,
      "мужчи": 2834,
      "вместо": 2835,
      "заба": 2836,
      "желая": 2837,
      "навли": 2838,
      "изо": 2839,
      "пальцами": 2840,
      "папиро": 2841,
      "образо": 2842,
      "казались": 2843,
      "ствен": 2844,
      "уверенно": 2845,
      "хала": 2846,
      "напря": 2847,
      "каре": 2848,
      "шими": 2849,
      "хуже": 2850,
      "гивая": 2851,
      "убий": 2852,
      "хохот": 2853,
      "часы": 2854,
      "например": 2855,
      "несчаст": 2856,
      "ваш": 2857,
      "душа": 2858,
      "разно": 2859,
      "Мать": 2860,
      "тное": 2861,
      "чувствовала": 2862,
      "спать": 2863,
      "зда": 2864,
      "ям": 2865,
      "ково": 2866,
      "воспи": 2867,
      "заки": 2868,
      "рье": 2869,
      "ужи": 2870,
      "проща": 2871,
      "двое": 2872,
      "ческого": 2873,
      "человеком": 2874,
      "имя": 2875,
      "шап": 2876,
      "били": 2877,
      "ответила": 2878,
      "словами": 2879,
      "плю": 2880,
      "превос": 2881,
      "взо": 2882,
      "редко": 2883,
      "угрю": 2884,
      "стный": 2885,
      "цар": 2886,
      "княги": 2887,
      "Вале": 2888,
      "Ей": 2889,
      "нда": 2890,
      "нашей": 2891,
      "кем": 2892,
      "сова": 2893,
      "став": 2894,
      "щем": 2895,
      "телем": 2896,
      "держать": 2897,
      "команди": 2898,
      "тельного": 2899,
      "живет": 2900,
      "беспре": 2901,
      "тысяч": 2902,
      "лек": 2903,
      "валь": 2904,
      "сыпа": 2905,
      "могут": 2906,
      "столом": 2907,
      "сообщи": 2908,
      "Вла": 2909,
      "прошел": 2910,
      "готов": 2911,
      "вашего": 2912,
      "тушка": 2913,
      "редка": 2914,
      "ните": 2915,
      "прошу": 2916,
      "читать": 2917,
      "Ее": 2918,
      "навер": 2919,
      "лью": 2920,
      "бросил": 2921,
      "Вдруг": 2922,
      "женно": 2923,
      "стым": 2924,
      "слушать": 2925,
      "Ска": 2926,
      "её": 2927,
      "рик": 2928,
      "мок": 2929,
      "смотрели": 2930,
      "высоко": 2931,
      "Кру": 2932,
      "дным": 2933,
      "пригото": 2934,
      "пяти": 2935,
      "плечи": 2936,
      "глухо": 2937,
      "тащи": 2938,
      "плечо": 2939,
      "крик": 2940,
      "Разу": 2941,
      "пустил": 2942,
      "последний": 2943,
      "Дени": 2944,
      "Тимо": 2945,
      "назна": 2946,
      "пусть": 2947,
      "хороше": 2948,
      "крова": 2949,
      "вес": 2950,
      "прие": 2951,
      "стати": 2952,
      "взять": 2953,
      "обстоя": 2954,
      "слез": 2955,
      "продолжала": 2956,
      "поднялся": 2957,
      "вшегося": 2958,
      "разговари": 2959,
      "знаком": 2960,
      "говорите": 2961,
      "Павловна": 2962,
      "указы": 2963,
      "жных": 2964,
      "жает": 2965,
      "ближе": 2966,
      "дворе": 2967,
      "явился": 2968,
      "шевели": 2969,
      "хол": 2970,
      "стен": 2971,
      "дки": 2972,
      "прокля": 2973,
      "ночью": 2974,
      "приш": 2975,
      "притво": 2976,
      "целу": 2977,
      "заметно": 2978,
      "встречу": 2979,
      "правду": 2980,
      "видит": 2981,
      "нечто": 2982,
      "крайней": 2983,
      "Наталья": 2984,
      "изи": 2985,
      "главное": 2986,
      "ешься": 2987,
      "ата": 2988,
      "дря": 2989,
      "смысле": 2990,
      "лее": 2991,
      "скал": 2992,
      "слабо": 2993,
      "Григория": 2994,
      "спод": 2995,
      "эк": 2996,
      "ческий": 2997,
      "тельные": 2998,
      "вода": 2999
    },
    "merges": [
      [
        "т",
        "о"
      ],
      [
        "н",
        "а"
      ],
      [
        "н",
        "о"
      ],
      [
        "н",
        "е"
      ],
      [
        "с",
        "т"
      ],
      [
        "п",
        "о"
      ],
      [
        "а",
        "л"
      ],
      [
        "к",
        "о"
      ],
      [
        "г",
        "о"
      ],
      [
        "р",
        "о"
      ],
      [
        "р",
        "а"
      ],
      [
        "к",
        "а"
      ],
      [
        "н",
        "и"
      ],
      [
        "в",
        "о"
      ],
      [
        "р",
        "е"
      ],
      [
        "л",
        "о"
      ],
      [
        "л",
        "и"
      ],
      [
        "р",
        "и"
      ],
      [
        "л",
        "а"
      ],
      [
        "т",
        "ь"
      ],
      [
        "в",
        "е"
      ],
      [
        "т",
        "е"
      ],
      [
        "в",
        "а"
      ],
      [
        "д",
        "е"
      ],
      [
        "з",
        "а"
      ],
      [
        "д",
        "о"
      ],
      [
        "л",
        "е"
      ],
      [
        "-",
        "-"
      ],
      [
        "с",
        "я"
      ],
      [
        "с",
        "е"
      ],
      [
        "ж",
        "е"
      ],
      [
        "д",
        "а"
      ],
      [
        "м",
        "е"
      ],
      [
        "н",
        "ы"
      ],
      [
        "м",
        "о"
      ],
      [
        "ч",
        "е"
      ],
      [
        "л",
        "ь"
      ],
      [
        "б",
        "ы"
      ],
      [
        "с",
        "ь"
      ],
      [
        "в",
        "и"
      ],
      [
        "м",
        "и"
      ],
      [
        "к",
        "и"
      ],
      [
        "т",
        "а"
      ],
      [
        "ч",
        "то"
      ],
      [
        "р",
        "у"
      ],
      [
        "н",
        "у"
      ],
      [
        "о",
        "т"
      ],
      [
        "в",
        "ы"
      ],
      [
        "д",
        "и"
      ],
      [
        "с",
        "о"
      ],
      [
        "т",
        "и"
      ],
      [
        "п",
        "ро"
      ],
      [
        "м",
        "у"
      ],
      [
        "ш",
        "е"
      ],
      [
        "б",
        "е"
      ],
      [
        "б",
        "о"
      ],
      [
        "п",
        "е"
      ],
      [
        "х",
        "о"
      ],
      [
        "м",
        "а"
      ],
      [
        "п",
        "ри"
      ],
      [
        "о",
        "н"
      ],
      [
        "н",
        "я"
      ],
      [
        "д",
        "у"
      ],
      [
        "к",
        "у"
      ],
      [
        "ч",
        "и"
      ],
      [
        "с",
        "то"
      ],
      [
        "ш",
        "и"
      ],
      [
        "ст",
        "а"
      ],
      [
        "с",
        "и"
      ],
      [
        "ч",
        "а"
      ],
      [
        "л",
        "я"
      ],
      [
        "е",
        "го"
      ],
      [
        "ал",
        "а"
      ],
      [
        "ж",
        "и"
      ],
      [
        "с",
        "а"
      ],
      [
        "в",
        "се"
      ],
      [
        "н",
        "но"
      ],
      [
        "р",
        "ы"
      ],
      [
        "ка",
        "к"
      ],
      [
        "э",
        "то"
      ],
      [
        "с",
        "ка"
      ],
      [
        "ра",
        "з"
      ],
      [
        "о",
        "б"
      ],
      [
        "л",
        "у"
      ],
      [
        "н",
        "ь"
      ],
      [
        "т",
        "ы"
      ],
      [
        "е",
        "т"
      ],
      [
        "и",
        "з"
      ],
      [
        "ал",
        "и"
      ],
      [
        "щ",
        "е"
      ],
      [
        "с",
        "ко"
      ],
      [
        "ст",
        "и"
      ],
      [
        "б",
        "у"
      ],
      [
        "л",
        "ю"
      ],
      [
        "р",
        "я"
      ],
      [
        "п",
        "а"
      ],
      [
        "ни",
        "е"
      ],
      [
        "т",
        "у"
      ],
      [
        "по",
        "д"
      ],
      [
        "г",
        "а"
      ],
      [
        "ст",
        "ь"
      ],
      [
        "п",
        "ре"
      ],
      [
        "с",
        "во"
      ],
      [
        "з",
        "на"
      ],
      [
        "л",
        "ся"
      ],
      [
        "п",
        "и"
      ],
      [
        "г",
        "и"
      ],
      [
        "ш",
        "а"
      ],
      [
        "в",
        "ал"
      ],
      [
        "л",
        "ы"
      ],
      [
        "н",
        "ны"
      ],
      [
        "го",
        "во"
      ],
      [
        "ц",
        "е"
      ],
      [
        "ве",
        "р"
      ],
      [
        "о",
        "на"
      ],
      [
        "г",
        "да"
      ],
      [
        "м",
        "ы"
      ],
      [
        "б",
        "а"
      ],
      [
        "те",
        "ль"
      ],
      [
        "ра",
        "с"
      ],
      [
        "ска",
        "з"
      ],
      [
        "ко",
        "то"
      ],
      [
        "б",
        "и"
      ],
      [
        "в",
        "у"
      ],
      [
        "ко",
        "й"
      ],
      [
        "е",
        "е"
      ],
      [
        "щ",
        "и"
      ],
      [
        "ль",
        "ко"
      ],
      [
        "ж",
        "а"
      ],
      [
        "с",
        "у"
      ],
      [
        "та",
        "к"
      ],
      [
        "п",
        "у"
      ],
      [
        "ни",
        "я"
      ],
      [
        "но",
        "й"
      ],
      [
        "д",
        "ру"
      ],
      [
        "г",
        "ла"
      ],
      [
        "ч",
        "у"
      ],
      [
        "пе",
        "ре"
      ],
      [
        "г",
        "у"
      ],
      [
        "бы",
        "ло"
      ],
      [
        "ц",
        "а"
      ],
      [
        "с",
        "ле"
      ],
      [
        "д",
        "ы"
      ],
      [
        "ал",
        "о"
      ],
      [
        "гово",
        "ри"
      ],
      [
        "е",
        "й"
      ],
      [
        "с",
        "ки"
      ],
      [
        "р",
        "ь"
      ],
      [
        "ко",
        "м"
      ],
      [
        "П",
        "о"
      ],
      [
        "ть",
        "ся"
      ],
      [
        "с",
        "к"
      ],
      [
        "д",
        "ь"
      ],
      [
        "д",
        "но"
      ],
      [
        "ал",
        "ь"
      ],
      [
        "с",
        "по"
      ],
      [
        "ны",
        "й"
      ],
      [
        "ст",
        "во"
      ],
      [
        "п",
        "ра"
      ],
      [
        "ш",
        "ь"
      ],
      [
        "м",
        "не"
      ],
      [
        "в",
        "ши"
      ],
      [
        "к",
        "е"
      ],
      [
        "ст",
        "е"
      ],
      [
        "ме",
        "ня"
      ],
      [
        "е",
        "му"
      ],
      [
        "и",
        "х"
      ],
      [
        "т",
        "ре"
      ],
      [
        "го",
        "ло"
      ],
      [
        "О",
        "н"
      ],
      [
        "в",
        "з"
      ],
      [
        "ж",
        "но"
      ],
      [
        "Н",
        "а"
      ],
      [
        "ва",
        "я"
      ],
      [
        "во",
        "з"
      ],
      [
        "е",
        "м"
      ],
      [
        "с",
        "ло"
      ],
      [
        "б",
        "я"
      ],
      [
        "то",
        "м"
      ],
      [
        "т",
        "ся"
      ],
      [
        "ла",
        "сь"
      ],
      [
        "бы",
        "л"
      ],
      [
        "на",
        "я"
      ],
      [
        "но",
        "го"
      ],
      [
        "сказ",
        "ал"
      ],
      [
        "Н",
        "е"
      ],
      [
        "с",
        "лу"
      ],
      [
        "г",
        "ля"
      ],
      [
        "то",
        "лько"
      ],
      [
        "ны",
        "е"
      ],
      [
        "м",
        "я"
      ],
      [
        "ко",
        "гда"
      ],
      [
        "хо",
        "ди"
      ],
      [
        "е",
        "ще"
      ],
      [
        "ну",
        "л"
      ],
      [
        "х",
        "а"
      ],
      [
        "у",
        "же"
      ],
      [
        "с",
        "ли"
      ],
      [
        "ч",
        "но"
      ],
      [
        "д",
        "я"
      ],
      [
        "до",
        "л"
      ],
      [
        "ко",
        "в"
      ],
      [
        "не",
        "й"
      ],
      [
        "с",
        "ы"
      ],
      [
        "ст",
        "у"
      ],
      [
        "не",
        "го"
      ],
      [
        "ст",
        "ра"
      ],
      [
        "Д",
        "а"
      ],
      [
        "ка",
        "з"
      ],
      [
        "с",
        "ме"
      ],
      [
        "че",
        "го"
      ],
      [
        "ше",
        "л"
      ],
      [
        "че",
        "м"
      ],
      [
        "К",
        "а"
      ],
      [
        "ж",
        "ал"
      ],
      [
        "тель",
        "но"
      ],
      [
        "ны",
        "м"
      ],
      [
        "Н",
        "о"
      ],
      [
        "кото",
        "ры"
      ],
      [
        "ро",
        "м"
      ],
      [
        "де",
        "т"
      ],
      [
        "во",
        "й"
      ],
      [
        "М",
        "а"
      ],
      [
        "в",
        "но"
      ],
      [
        "де",
        "л"
      ],
      [
        "ло",
        "ве"
      ],
      [
        "не",
        "е"
      ],
      [
        "е",
        "р"
      ],
      [
        "м",
        "ал"
      ],
      [
        "бо",
        "ль"
      ],
      [
        "ва",
        "ть"
      ],
      [
        "в",
        "ст"
      ],
      [
        "т",
        "я"
      ],
      [
        "де",
        "ла"
      ],
      [
        "с",
        "мо"
      ],
      [
        "п",
        "я"
      ],
      [
        "бе",
        "з"
      ],
      [
        "ли",
        "сь"
      ],
      [
        "ш",
        "у"
      ],
      [
        "про",
        "си"
      ],
      [
        "ны",
        "х"
      ],
      [
        "че",
        "лове"
      ],
      [
        "п",
        "ы"
      ],
      [
        "сто",
        "я"
      ],
      [
        "но",
        "в"
      ],
      [
        "ро",
        "в"
      ],
      [
        "ал",
        "ся"
      ],
      [
        "пре",
        "д"
      ],
      [
        "ну",
        "ю"
      ],
      [
        "о",
        "че"
      ],
      [
        "те",
        "м"
      ],
      [
        "гла",
        "за"
      ],
      [
        "щ",
        "а"
      ],
      [
        "ни",
        "м"
      ],
      [
        "ц",
        "о"
      ],
      [
        "г",
        "ра"
      ],
      [
        "д",
        "ля"
      ],
      [
        "в",
        "ре"
      ],
      [
        "ст",
        "ро"
      ],
      [
        "т",
        "ри"
      ],
      [
        "з",
        "о"
      ],
      [
        "ст",
        "ве"
      ],
      [
        "в",
        "ле"
      ],
      [
        "в",
        "али"
      ],
      [
        "ч",
        "ал"
      ],
      [
        "пе",
        "рь"
      ],
      [
        "ф",
        "и"
      ],
      [
        "к",
        "ры"
      ],
      [
        "по",
        "л"
      ],
      [
        "ко",
        "н"
      ],
      [
        "ю",
        "т"
      ],
      [
        "и",
        "ли"
      ],
      [
        "о",
        "д"
      ],
      [
        "че",
        "р"
      ],
      [
        "нны",
        "й"
      ],
      [
        "я",
        "сь"
      ],
      [
        "в",
        "ала"
      ],
      [
        "с",
        "ве"
      ],
      [
        "к",
        "то"
      ],
      [
        "бы",
        "ть"
      ],
      [
        "и",
        "м"
      ],
      [
        "с",
        "но"
      ],
      [
        "о",
        "ни"
      ],
      [
        "ло",
        "сь"
      ],
      [
        "ч",
        "ь"
      ],
      [
        "дру",
        "г"
      ],
      [
        "то",
        "го"
      ],
      [
        "бы",
        "ла"
      ],
      [
        "г",
        "е"
      ],
      [
        "се",
        "бя"
      ],
      [
        "ц",
        "и"
      ],
      [
        "от",
        "ве"
      ],
      [
        "ре",
        "з"
      ],
      [
        "о",
        "ста"
      ],
      [
        "т",
        "но"
      ],
      [
        "и",
        "с"
      ],
      [
        "С",
        "а"
      ],
      [
        "к",
        "ра"
      ],
      [
        "оче",
        "нь"
      ],
      [
        "ет",
        "ся"
      ],
      [
        "во",
        "т"
      ],
      [
        "де",
        "р"
      ],
      [
        "ни",
        "ма"
      ],
      [
        "п",
        "ле"
      ],
      [
        "пе",
        "р"
      ],
      [
        "п",
        "ла"
      ],
      [
        "д",
        "ал"
      ],
      [
        "ст",
        "ы"
      ],
      [
        "з",
        "ы"
      ],
      [
        "ш",
        "о"
      ],
      [
        "не",
        "м"
      ],
      [
        "э",
        "ти"
      ],
      [
        "те",
        "перь"
      ],
      [
        "же",
        "н"
      ],
      [
        "е",
        "з"
      ],
      [
        "не",
        "т"
      ],
      [
        "ди",
        "н"
      ],
      [
        "же",
        "т"
      ],
      [
        "мо",
        "л"
      ],
      [
        "в",
        "я"
      ],
      [
        "з",
        "и"
      ],
      [
        "О",
        "на"
      ],
      [
        "ало",
        "сь"
      ],
      [
        "мо",
        "й"
      ],
      [
        "де",
        "й"
      ],
      [
        "ни",
        "и"
      ],
      [
        "до",
        "м"
      ],
      [
        "ко",
        "го"
      ],
      [
        "Т",
        "а"
      ],
      [
        "К",
        "о"
      ],
      [
        "ж",
        "у"
      ],
      [
        "но",
        "ви"
      ],
      [
        "ко",
        "е"
      ],
      [
        "с",
        "проси"
      ],
      [
        "да",
        "же"
      ],
      [
        "б",
        "ра"
      ],
      [
        "говори",
        "л"
      ],
      [
        "по",
        "сле"
      ],
      [
        "с",
        "ла"
      ],
      [
        "к",
        "ри"
      ],
      [
        "к",
        "ру"
      ],
      [
        "б",
        "ле"
      ],
      [
        "ки",
        "е"
      ],
      [
        "б",
        "ро"
      ],
      [
        "ш",
        "ка"
      ],
      [
        "кото",
        "ро"
      ],
      [
        "ки",
        "й"
      ],
      [
        "ц",
        "ы"
      ],
      [
        "в",
        "с"
      ],
      [
        "на",
        "д"
      ],
      [
        "ка",
        "я"
      ],
      [
        "Э",
        "то"
      ],
      [
        "ц",
        "у"
      ],
      [
        "е",
        "те"
      ],
      [
        "В",
        "а"
      ],
      [
        "ж",
        "де"
      ],
      [
        "в",
        "ля"
      ],
      [
        "ва",
        "с"
      ],
      [
        "х",
        "и"
      ],
      [
        "з",
        "я"
      ],
      [
        "т",
        "ра"
      ],
      [
        "то",
        "му"
      ],
      [
        "и",
        "ме"
      ],
      [
        "ние",
        "м"
      ],
      [
        "к",
        "ре"
      ],
      [
        "с",
        "лы"
      ],
      [
        "Н",
        "у"
      ],
      [
        "по",
        "ло"
      ],
      [
        "пя",
        "ть"
      ],
      [
        "н",
        "д"
      ],
      [
        "что",
        "бы"
      ],
      [
        "бы",
        "ли"
      ],
      [
        "во",
        "ль"
      ],
      [
        "х",
        "от"
      ],
      [
        "ка",
        "ми"
      ],
      [
        "до",
        "ро"
      ],
      [
        "об",
        "ра"
      ],
      [
        "ва",
        "м"
      ],
      [
        "се",
        "р"
      ],
      [
        "ча",
        "с"
      ],
      [
        "З",
        "а"
      ],
      [
        "ни",
        "й"
      ],
      [
        "вы",
        "й"
      ],
      [
        "в",
        "ше"
      ],
      [
        "и",
        "н"
      ],
      [
        "Н",
        "и"
      ],
      [
        "за",
        "ме"
      ],
      [
        "сто",
        "ро"
      ],
      [
        "са",
        "мо"
      ],
      [
        "г",
        "ру"
      ],
      [
        "жи",
        "з"
      ],
      [
        "у",
        "лы"
      ],
      [
        "но",
        "м"
      ],
      [
        "се",
        "бе"
      ],
      [
        "г",
        "лу"
      ],
      [
        "к",
        "рас"
      ],
      [
        "нны",
        "е"
      ],
      [
        "ти",
        "л"
      ],
      [
        "хо",
        "ро"
      ],
      [
        "смо",
        "тре"
      ],
      [
        "ски",
        "й"
      ],
      [
        "али",
        "сь"
      ],
      [
        "ни",
        "х"
      ],
      [
        "Ч",
        "то"
      ],
      [
        "ю",
        "щи"
      ],
      [
        "ст",
        "ви"
      ],
      [
        "В",
        "ы"
      ],
      [
        "И",
        "ва"
      ],
      [
        "ли",
        "цо"
      ],
      [
        "сказ",
        "ала"
      ],
      [
        "но",
        "е"
      ],
      [
        "ну",
        "лся"
      ],
      [
        "ка",
        "за"
      ],
      [
        "М",
        "о"
      ],
      [
        "ско",
        "лько"
      ],
      [
        "ни",
        "к"
      ],
      [
        "ала",
        "сь"
      ],
      [
        "пере",
        "д"
      ],
      [
        "ро",
        "д"
      ],
      [
        "нно",
        "й"
      ],
      [
        "г",
        "де"
      ],
      [
        "Р",
        "а"
      ],
      [
        "ду",
        "ма"
      ],
      [
        "в",
        "друг"
      ],
      [
        "де",
        "нь"
      ],
      [
        "все",
        "м"
      ],
      [
        "мо",
        "г"
      ],
      [
        "в",
        "ство"
      ],
      [
        "е",
        "в"
      ],
      [
        "о",
        "дно"
      ],
      [
        "т",
        "ру"
      ],
      [
        "дру",
        "го"
      ],
      [
        "мо",
        "жет"
      ],
      [
        "с",
        "ку"
      ],
      [
        "по",
        "до"
      ],
      [
        "ко",
        "не"
      ],
      [
        "ме",
        "р"
      ],
      [
        "п",
        "ря"
      ],
      [
        "ло",
        "в"
      ],
      [
        "ки",
        "м"
      ],
      [
        "бо",
        "ле"
      ],
      [
        "это",
        "го"
      ],
      [
        "е",
        "сли"
      ],
      [
        "А",
        "ле"
      ],
      [
        "д",
        "ва"
      ],
      [
        "на",
        "до"
      ],
      [
        "вре",
        "мя"
      ],
      [
        "к",
        "ро"
      ],
      [
        "б",
        "ла"
      ],
      [
        "бу",
        "дет"
      ],
      [
        "ни",
        "чего"
      ],
      [
        "мо",
        "ло"
      ],
      [
        "чу",
        "вство"
      ],
      [
        "Са",
        "м"
      ],
      [
        "ш",
        "ла"
      ],
      [
        "ст",
        "ва"
      ],
      [
        "П",
        "а"
      ],
      [
        "бу",
        "дь"
      ],
      [
        "Т",
        "о"
      ],
      [
        "та",
        "м"
      ],
      [
        "челове",
        "к"
      ],
      [
        "ско",
        "й"
      ],
      [
        "е",
        "шь"
      ],
      [
        "б",
        "ли"
      ],
      [
        "то",
        "л"
      ],
      [
        "ска",
        "за"
      ],
      [
        "с",
        "пе"
      ],
      [
        "то",
        "т"
      ],
      [
        "е",
        "сть"
      ],
      [
        "ми",
        "ну"
      ],
      [
        "хо",
        "те"
      ],
      [
        "ви",
        "ч"
      ],
      [
        "лю",
        "би"
      ],
      [
        "х",
        "у"
      ],
      [
        "то",
        "й"
      ],
      [
        "ду",
        "мал"
      ],
      [
        "ги",
        "н"
      ],
      [
        "ну",
        "ла"
      ],
      [
        "по",
        "лу"
      ],
      [
        "ли",
        "во"
      ],
      [
        "ком",
        "на"
      ],
      [
        "сть",
        "ю"
      ],
      [
        "т",
        "во"
      ],
      [
        "к",
        "ня"
      ],
      [
        "у",
        "ж"
      ],
      [
        "по",
        "ч"
      ],
      [
        "на",
        "с"
      ],
      [
        "н",
        "ю"
      ],
      [
        "р",
        "ю"
      ],
      [
        "те",
        "р"
      ],
      [
        "о",
        "пять"
      ],
      [
        "са",
        "м"
      ],
      [
        "те",
        "бя"
      ],
      [
        "п",
        "ло"
      ],
      [
        "Г",
        "о"
      ],
      [
        "ст",
        "ал"
      ],
      [
        "В",
        "е"
      ],
      [
        "ве",
        "ли"
      ],
      [
        "вши",
        "сь"
      ],
      [
        "й",
        "те"
      ],
      [
        "нны",
        "м"
      ],
      [
        "ни",
        "будь"
      ],
      [
        "о",
        "к"
      ],
      [
        "это",
        "т"
      ],
      [
        "П",
        "ро"
      ],
      [
        "д",
        "ве"
      ],
      [
        "\"",
        ","
      ],
      [
        "ско",
        "го"
      ],
      [
        "з",
        "у"
      ],
      [
        "нно",
        "е"
      ],
      [
        "ни",
        "ка"
      ],
      [
        "мо",
        "жно"
      ],
      [
        "в",
        "ся"
      ],
      [
        "те",
        "бе"
      ],
      [
        "бо",
        "й"
      ],
      [
        "т",
        "ро"
      ],
      [
        "В",
        "от"
      ],
      [
        "в",
        "то"
      ],
      [
        "спроси",
        "л"
      ],
      [
        "в",
        "ра"
      ],
      [
        "нны",
        "х"
      ],
      [
        "ки",
        "х"
      ],
      [
        "Ка",
        "к"
      ],
      [
        "ны",
        "ми"
      ],
      [
        "де",
        "ло"
      ],
      [
        "о",
        "бе"
      ],
      [
        "ту",
        "т"
      ],
      [
        "бу",
        "д"
      ],
      [
        "В",
        "о"
      ],
      [
        "ж",
        "да"
      ],
      [
        "з",
        "е"
      ],
      [
        "т",
        "ал"
      ],
      [
        "вал",
        "ся"
      ],
      [
        "р",
        "ти"
      ],
      [
        "Л",
        "и"
      ],
      [
        "сло",
        "ва"
      ],
      [
        "ст",
        "ре"
      ],
      [
        "м",
        "ни"
      ],
      [
        "то",
        "же"
      ],
      [
        "е",
        "х"
      ],
      [
        "улы",
        "б"
      ],
      [
        "ра",
        "н"
      ],
      [
        "Б",
        "о"
      ],
      [
        "вз",
        "гля"
      ],
      [
        "при",
        "я"
      ],
      [
        "по",
        "том"
      ],
      [
        "ле",
        "т"
      ],
      [
        "д",
        "во"
      ],
      [
        "Т",
        "ы"
      ],
      [
        "до",
        "в"
      ],
      [
        "буд",
        "то"
      ],
      [
        "Р",
        "о"
      ],
      [
        "ф",
        "а"
      ],
      [
        "ви",
        "л"
      ],
      [
        "бла",
        "го"
      ],
      [
        "об",
        "раз"
      ],
      [
        "ма",
        "н"
      ],
      [
        "с",
        "ча"
      ],
      [
        "Д",
        "о"
      ],
      [
        "з",
        "ь"
      ],
      [
        "ка",
        "х"
      ],
      [
        "ви",
        "де"
      ],
      [
        "ст",
        "я"
      ],
      [
        "д",
        "ня"
      ],
      [
        "по",
        "тому"
      ],
      [
        "че",
        "т"
      ],
      [
        "П",
        "ет"
      ],
      [
        "ж",
        "ду"
      ],
      [
        "нно",
        "го"
      ],
      [
        "о",
        "дин"
      ],
      [
        "вал",
        "о"
      ],
      [
        "го",
        "р"
      ],
      [
        "вши",
        "й"
      ],
      [
        "все",
        "х"
      ],
      [
        "ч",
        "ала"
      ],
      [
        "д",
        "ви"
      ],
      [
        "Але",
        "к"
      ],
      [
        "к",
        "ла"
      ],
      [
        "щ",
        "у"
      ],
      [
        "но",
        "ве"
      ],
      [
        "все",
        "гда"
      ],
      [
        "которы",
        "й"
      ],
      [
        "в",
        "ь"
      ],
      [
        "ш",
        "ли"
      ],
      [
        "которы",
        "е"
      ],
      [
        "В",
        "се"
      ],
      [
        "з",
        "ем"
      ],
      [
        "о",
        "жи"
      ],
      [
        "х",
        "ва"
      ],
      [
        "сво",
        "ей"
      ],
      [
        "о",
        "р"
      ],
      [
        ",",
        "--"
      ],
      [
        "Г",
        "ри"
      ],
      [
        "ш",
        "но"
      ],
      [
        "ти",
        "в"
      ],
      [
        "се",
        "й"
      ],
      [
        "ра",
        "я"
      ],
      [
        "сказа",
        "ть"
      ],
      [
        "те",
        "ле"
      ],
      [
        "ст",
        "но"
      ],
      [
        "ве",
        "т"
      ],
      [
        "боль",
        "ше"
      ],
      [
        "вы",
        "м"
      ],
      [
        "ре",
        "ши"
      ],
      [
        "боле",
        "е"
      ],
      [
        "д",
        "ро"
      ],
      [
        "ну",
        "в"
      ],
      [
        "то",
        "р"
      ],
      [
        "это",
        "м"
      ],
      [
        "ру",
        "ки"
      ],
      [
        "про",
        "дол"
      ],
      [
        "д",
        "ра"
      ],
      [
        "же",
        "ние"
      ],
      [
        "у",
        "ме"
      ],
      [
        "ша",
        "я"
      ],
      [
        "ш",
        "ки"
      ],
      [
        "ле",
        "г"
      ],
      [
        "М",
        "и"
      ],
      [
        "бе",
        "с"
      ],
      [
        "н",
        "ная"
      ],
      [
        "си",
        "ль"
      ],
      [
        "сво",
        "ю"
      ],
      [
        "С",
        "о"
      ],
      [
        "не",
        "сколько"
      ],
      [
        "по",
        "ня"
      ],
      [
        "со",
        "м"
      ],
      [
        "ве",
        "се"
      ],
      [
        "о",
        "со"
      ],
      [
        "ре",
        "д"
      ],
      [
        "г",
        "ро"
      ],
      [
        "м",
        "ного"
      ],
      [
        "вст",
        "ре"
      ],
      [
        "од",
        "на"
      ],
      [
        "го",
        "ри"
      ],
      [
        "то",
        "в"
      ],
      [
        "ру",
        "ку"
      ],
      [
        "Сам",
        "гин"
      ],
      [
        "поч",
        "ти"
      ],
      [
        "пра",
        "в"
      ],
      [
        "на",
        "м"
      ],
      [
        "то",
        "чно"
      ],
      [
        "ча",
        "й"
      ],
      [
        "до",
        "й"
      ],
      [
        "сво",
        "и"
      ],
      [
        "вз",
        "я"
      ],
      [
        "вы",
        "е"
      ],
      [
        "ви",
        "ди"
      ],
      [
        "у",
        "м"
      ],
      [
        "ни",
        "ю"
      ],
      [
        "ты",
        "й"
      ],
      [
        "с",
        "пи"
      ],
      [
        "ва",
        "ри"
      ],
      [
        "до",
        "воль"
      ],
      [
        "каз",
        "алось"
      ],
      [
        "со",
        "л"
      ],
      [
        "че",
        "му"
      ],
      [
        "ро",
        "т"
      ],
      [
        "зна",
        "ю"
      ],
      [
        "коне",
        "ц"
      ],
      [
        "Л",
        "е"
      ],
      [
        "бу",
        "ду"
      ],
      [
        "то",
        "гда"
      ],
      [
        "к",
        "нул"
      ],
      [
        "ри",
        "л"
      ],
      [
        "с",
        "ни"
      ],
      [
        "по",
        "з"
      ],
      [
        "Н",
        "ет"
      ],
      [
        "ва",
        "ет"
      ],
      [
        "ре",
        "й"
      ],
      [
        "ч",
        "ка"
      ],
      [
        "пу",
        "сти"
      ],
      [
        "ве",
        "дь"
      ],
      [
        "да",
        "ть"
      ],
      [
        "чу",
        "вст"
      ],
      [
        "со",
        "вер"
      ],
      [
        "но",
        "ва"
      ],
      [
        "жен",
        "щи"
      ],
      [
        "ко",
        "ле"
      ],
      [
        "не",
        "му"
      ],
      [
        "ку",
        "да"
      ],
      [
        "ме",
        "ни"
      ],
      [
        "Та",
        "к"
      ],
      [
        "ви",
        "дел"
      ],
      [
        "под",
        "ня"
      ],
      [
        "ч",
        "ки"
      ],
      [
        "п",
        "аль"
      ],
      [
        "ъ",
        "я"
      ],
      [
        "ку",
        "ю"
      ],
      [
        "о",
        "бо"
      ],
      [
        "сер",
        "д"
      ],
      [
        "А",
        "нд"
      ],
      [
        "лу",
        "ч"
      ],
      [
        "ме",
        "сте"
      ],
      [
        "голо",
        "ву"
      ],
      [
        "ф",
        "е"
      ],
      [
        "по",
        "р"
      ],
      [
        "ка",
        "р"
      ],
      [
        "об",
        "ще"
      ],
      [
        "слы",
        "ш"
      ],
      [
        "с",
        "пра"
      ],
      [
        "к",
        "ло"
      ],
      [
        "о",
        "бы"
      ],
      [
        "н",
        "т"
      ],
      [
        "у",
        "ди"
      ],
      [
        "Гри",
        "гори"
      ],
      [
        "ста",
        "ви"
      ],
      [
        "р",
        "ал"
      ],
      [
        "вы",
        "х"
      ],
      [
        "П",
        "ри"
      ],
      [
        "ка",
        "кой"
      ],
      [
        "ти",
        "хо"
      ],
      [
        "во",
        "л"
      ],
      [
        "по",
        "й"
      ],
      [
        "лю",
        "бо"
      ],
      [
        "е",
        "нь"
      ],
      [
        "п",
        "ал"
      ],
      [
        "ду",
        "м"
      ],
      [
        "з",
        "де"
      ],
      [
        "ь",
        "я"
      ],
      [
        "че",
        "рез"
      ],
      [
        "из",
        "ве"
      ],
      [
        "говори",
        "ть"
      ],
      [
        "мо",
        "гу"
      ],
      [
        "лы",
        "й"
      ],
      [
        "но",
        "ги"
      ],
      [
        "лю",
        "дей"
      ],
      [
        "Ни",
        "ко"
      ],
      [
        "во",
        "е"
      ],
      [
        "А",
        "н"
      ],
      [
        "Ф",
        "е"
      ],
      [
        "зна",
        "л"
      ],
      [
        "ко",
        "ло"
      ],
      [
        "со",
        "в"
      ],
      [
        "ж",
        "ала"
      ],
      [
        "сво",
        "е"
      ],
      [
        "пра",
        "ви"
      ],
      [
        "б",
        "но"
      ],
      [
        "лю",
        "ди"
      ],
      [
        "после",
        "д"
      ],
      [
        "спо",
        "кой"
      ],
      [
        "вер",
        "ь"
      ],
      [
        "хот",
        "я"
      ],
      [
        "у",
        "да"
      ],
      [
        "вая",
        "сь"
      ],
      [
        "дру",
        "ги"
      ],
      [
        "что",
        "б"
      ],
      [
        "че",
        "ски"
      ],
      [
        "ло",
        "м"
      ],
      [
        "по",
        "ка"
      ],
      [
        "про",
        "сто"
      ],
      [
        "чи",
        "т"
      ],
      [
        "ра",
        "до"
      ],
      [
        "жи",
        "ть"
      ],
      [
        "ж",
        "ды"
      ],
      [
        "ше",
        "й"
      ],
      [
        "жиз",
        "ни"
      ],
      [
        "К",
        "ли"
      ],
      [
        "дол",
        "го"
      ],
      [
        "а",
        "р"
      ],
      [
        "П",
        "е"
      ],
      [
        "ве",
        "сь"
      ],
      [
        "ли",
        "ца"
      ],
      [
        "в",
        "ла"
      ],
      [
        "совер",
        "ше"
      ],
      [
        "а",
        "н"
      ],
      [
        "э",
        "та"
      ],
      [
        "вс",
        "ё"
      ],
      [
        "ме",
        "жду"
      ],
      [
        "ву",
        "ю"
      ],
      [
        "ста",
        "ри"
      ],
      [
        "же",
        "ла"
      ],
      [
        "ну",
        "ть"
      ],
      [
        "чи",
        "та"
      ],
      [
        "т",
        "ря"
      ],
      [
        "те",
        "ри"
      ],
      [
        "жи",
        "л"
      ],
      [
        "о",
        "ст"
      ],
      [
        "г",
        "ром"
      ],
      [
        "у",
        "т"
      ],
      [
        "де",
        "ре"
      ],
      [
        "дела",
        "ть"
      ],
      [
        "со",
        "всем"
      ],
      [
        "жиз",
        "нь"
      ],
      [
        "хоро",
        "шо"
      ],
      [
        "это",
        "й"
      ],
      [
        "О",
        "т"
      ],
      [
        "друго",
        "й"
      ],
      [
        "говори",
        "ла"
      ],
      [
        "сво",
        "его"
      ],
      [
        "каз",
        "ы"
      ],
      [
        "у",
        "би"
      ],
      [
        "во",
        "ло"
      ],
      [
        "но",
        "си"
      ],
      [
        "д",
        "али"
      ],
      [
        "з",
        "ло"
      ],
      [
        "до",
        "ма"
      ],
      [
        "осо",
        "бе"
      ],
      [
        "ча",
        "я"
      ],
      [
        "по",
        "нима"
      ],
      [
        "у",
        "жа"
      ],
      [
        "го",
        "спо"
      ],
      [
        "об",
        "ъя"
      ],
      [
        "Л",
        "ю"
      ],
      [
        "ва",
        "ться"
      ],
      [
        "же",
        "ния"
      ],
      [
        "во",
        "ди"
      ],
      [
        "те",
        "ц"
      ],
      [
        "у",
        "ве"
      ],
      [
        "д",
        "ли"
      ],
      [
        "вы",
        "со"
      ],
      [
        "ми",
        "на"
      ],
      [
        "са",
        "ми"
      ],
      [
        "ше",
        "го"
      ],
      [
        "про",
        "тив"
      ],
      [
        "все",
        "го"
      ],
      [
        "оста",
        "нови"
      ],
      [
        "смотре",
        "л"
      ],
      [
        "с",
        "вя"
      ],
      [
        "ска",
        "я"
      ],
      [
        "ло",
        "ша"
      ],
      [
        "ь",
        "е"
      ],
      [
        "н",
        "ную"
      ],
      [
        "ни",
        "когда"
      ],
      [
        "Т",
        "е"
      ],
      [
        "мал",
        "ень"
      ],
      [
        "к",
        "ни"
      ],
      [
        "ма",
        "ть"
      ],
      [
        "ш",
        "ло"
      ],
      [
        "де",
        "ле"
      ],
      [
        "хо",
        "ло"
      ],
      [
        "чи",
        "л"
      ],
      [
        "сно",
        "ва"
      ],
      [
        "го",
        "ро"
      ],
      [
        "ех",
        "ал"
      ],
      [
        "ли",
        "це"
      ],
      [
        "ну",
        "лась"
      ],
      [
        "зна",
        "ко"
      ],
      [
        "б",
        "от"
      ],
      [
        "э",
        "ту"
      ],
      [
        "во",
        "м"
      ],
      [
        "в",
        "спо"
      ],
      [
        "от",
        "кры"
      ],
      [
        "стве",
        "нно"
      ],
      [
        "ю",
        "ще"
      ],
      [
        "М",
        "ы"
      ],
      [
        "н",
        "це"
      ],
      [
        "пи",
        "сь"
      ],
      [
        "мол",
        "ча"
      ],
      [
        "говори",
        "т"
      ],
      [
        "вши",
        "е"
      ],
      [
        "г",
        "ре"
      ],
      [
        "та",
        "кой"
      ],
      [
        "во",
        "про"
      ],
      [
        "щ",
        "его"
      ],
      [
        "во",
        "го"
      ],
      [
        "глаза",
        "ми"
      ],
      [
        "хо",
        "зя"
      ],
      [
        "де",
        "ли"
      ],
      [
        "ч",
        "али"
      ],
      [
        "ст",
        "ало"
      ],
      [
        "за",
        "д"
      ],
      [
        "ал",
        "е"
      ],
      [
        "че",
        "ра"
      ],
      [
        "ко",
        "р"
      ],
      [
        "сей",
        "час"
      ],
      [
        "во",
        "ро"
      ],
      [
        "мо",
        "е"
      ],
      [
        "мину",
        "ту"
      ],
      [
        "со",
        "б"
      ],
      [
        "Нико",
        "ла"
      ],
      [
        "ю",
        "сь"
      ],
      [
        "ви",
        "д"
      ],
      [
        "у",
        "й"
      ],
      [
        "челове",
        "ка"
      ],
      [
        "пи",
        "са"
      ],
      [
        "с",
        "ви"
      ],
      [
        "раз",
        "и"
      ],
      [
        "са",
        "мы"
      ],
      [
        "све",
        "т"
      ],
      [
        "хо",
        "дя"
      ],
      [
        "Ма",
        "р"
      ],
      [
        "бы",
        "стро"
      ],
      [
        "з",
        "ву"
      ],
      [
        "до",
        "б"
      ],
      [
        "де",
        "ся"
      ],
      [
        "ходи",
        "л"
      ],
      [
        "зде",
        "сь"
      ],
      [
        "де",
        "м"
      ],
      [
        "сто",
        "й"
      ],
      [
        "да",
        "вно"
      ],
      [
        "дер",
        "жа"
      ],
      [
        "ру",
        "с"
      ],
      [
        "тя",
        "же"
      ],
      [
        "но",
        "ю"
      ],
      [
        "луч",
        "ше"
      ],
      [
        "д",
        "верь"
      ],
      [
        "бро",
        "си"
      ],
      [
        "у",
        "го"
      ],
      [
        "ст",
        "ву"
      ],
      [
        "ль",
        "зя"
      ],
      [
        "ю",
        "тся"
      ],
      [
        "ско",
        "м"
      ],
      [
        "ты",
        "е"
      ],
      [
        "об",
        "и"
      ],
      [
        "М",
        "е"
      ],
      [
        "же",
        "тся"
      ],
      [
        "ски",
        "х"
      ],
      [
        "чувство",
        "вал"
      ],
      [
        "К",
        "у"
      ],
      [
        "нны",
        "ми"
      ],
      [
        "тот",
        "час"
      ],
      [
        "ч",
        "ку"
      ],
      [
        "раз",
        "гово"
      ],
      [
        "С",
        "е"
      ],
      [
        "с",
        "не"
      ],
      [
        "соверше",
        "нно"
      ],
      [
        "ру",
        "ю"
      ],
      [
        "ни",
        "ков"
      ],
      [
        "ста",
        "вля"
      ],
      [
        "вши",
        "х"
      ],
      [
        "Григори",
        "й"
      ],
      [
        "ко",
        "му"
      ],
      [
        "в",
        "не"
      ],
      [
        "голо",
        "с"
      ],
      [
        "р",
        "ва"
      ],
      [
        "у",
        "чи"
      ],
      [
        "б",
        "лю"
      ],
      [
        "та",
        "ки"
      ],
      [
        "сказ",
        "ы"
      ],
      [
        "Д",
        "е"
      ],
      [
        "хоте",
        "л"
      ],
      [
        "вы",
        "ра"
      ],
      [
        "на",
        "де"
      ],
      [
        "на",
        "ми"
      ],
      [
        "фи",
        "це"
      ],
      [
        "вс",
        "ю"
      ],
      [
        "сту",
        "пи"
      ],
      [
        "на",
        "чал"
      ],
      [
        "Д",
        "у"
      ],
      [
        "ве",
        "л"
      ],
      [
        "ви",
        "н"
      ],
      [
        "с",
        "дел"
      ],
      [
        "ра",
        "бо"
      ],
      [
        "вше",
        "го"
      ],
      [
        "О",
        "ни"
      ],
      [
        "с",
        "ю"
      ],
      [
        "Ко",
        "гда"
      ],
      [
        "спра",
        "ши"
      ],
      [
        "сво",
        "й"
      ],
      [
        "серд",
        "це"
      ],
      [
        "чи",
        "к"
      ],
      [
        "ши",
        "х"
      ],
      [
        "воз",
        "ь"
      ],
      [
        "ожи",
        "да"
      ],
      [
        "А",
        "р"
      ],
      [
        "Х",
        "о"
      ],
      [
        "с",
        "му"
      ],
      [
        "И",
        "з"
      ],
      [
        "ста",
        "р"
      ],
      [
        "ко",
        "ва"
      ],
      [
        "ш",
        "ком"
      ],
      [
        "те",
        "ре"
      ],
      [
        "ви",
        "дно"
      ],
      [
        "которо",
        "й"
      ],
      [
        "д",
        "ву"
      ],
      [
        "по",
        "ле"
      ],
      [
        "ца",
        "ть"
      ],
      [
        "на",
        "конец"
      ],
      [
        "ре",
        "ди"
      ],
      [
        "боль",
        "шо"
      ],
      [
        "при",
        "ня"
      ],
      [
        "му",
        "ж"
      ],
      [
        "те",
        "ля"
      ],
      [
        "си",
        "ли"
      ],
      [
        "о",
        "м"
      ],
      [
        "ре",
        "н"
      ],
      [
        "ски",
        "е"
      ],
      [
        "пы",
        "т"
      ],
      [
        "до",
        "ва"
      ],
      [
        "во",
        "ск"
      ],
      [
        "сча",
        "ст"
      ],
      [
        "с",
        "па"
      ],
      [
        "ко",
        "ю"
      ],
      [
        "не",
        "до"
      ],
      [
        "про",
        "из"
      ],
      [
        "го",
        "м"
      ],
      [
        "ме",
        "сто"
      ],
      [
        "о",
        "де"
      ],
      [
        "нь",
        "ка"
      ],
      [
        "в",
        "ни"
      ],
      [
        "лы",
        "е"
      ],
      [
        "но",
        "чь"
      ],
      [
        "шу",
        "ю"
      ],
      [
        "вали",
        "сь"
      ],
      [
        "Ра",
        "з"
      ],
      [
        "ме",
        "д"
      ],
      [
        "го",
        "то"
      ],
      [
        "то",
        "к"
      ],
      [
        "сво",
        "их"
      ],
      [
        "ни",
        "н"
      ],
      [
        "В",
        "и"
      ],
      [
        "на",
        "х"
      ],
      [
        "вала",
        "сь"
      ],
      [
        "бо",
        "р"
      ],
      [
        "мы",
        "с"
      ],
      [
        "по",
        "хо"
      ],
      [
        "ш",
        "ку"
      ],
      [
        "ти",
        "лся"
      ],
      [
        "в",
        "нима"
      ],
      [
        "та",
        "я"
      ],
      [
        "г",
        "ал"
      ],
      [
        "в",
        "месте"
      ],
      [
        "ну",
        "жно"
      ],
      [
        "Алек",
        "са"
      ],
      [
        "ци",
        "и"
      ],
      [
        "у",
        "бе"
      ],
      [
        "м",
        "аль"
      ],
      [
        "ни",
        "ми"
      ],
      [
        "сто",
        "л"
      ],
      [
        "сме",
        "я"
      ],
      [
        "та",
        "кое"
      ],
      [
        "же",
        "л"
      ],
      [
        "гла",
        "з"
      ],
      [
        "Б",
        "а"
      ],
      [
        "особе",
        "нно"
      ],
      [
        "ко",
        "ро"
      ],
      [
        "бо",
        "га"
      ],
      [
        "хо",
        "м"
      ],
      [
        "кру",
        "г"
      ],
      [
        "ти",
        "ла"
      ],
      [
        "дал",
        "е"
      ],
      [
        "кото",
        "рая"
      ],
      [
        "Кли",
        "м"
      ],
      [
        "по",
        "вто"
      ],
      [
        "в",
        "тра"
      ],
      [
        "которо",
        "го"
      ],
      [
        "са",
        "ма"
      ],
      [
        "о",
        "фице"
      ],
      [
        "не",
        "льзя"
      ],
      [
        "нь",
        "я"
      ],
      [
        "ж",
        "али"
      ],
      [
        "по",
        "жал"
      ],
      [
        "су",
        "да"
      ],
      [
        "Л",
        "у"
      ],
      [
        "не",
        "с"
      ],
      [
        "сво",
        "им"
      ],
      [
        "с",
        "си"
      ],
      [
        "слу",
        "ша"
      ],
      [
        "стоя",
        "л"
      ],
      [
        "пря",
        "мо"
      ],
      [
        "мо",
        "я"
      ],
      [
        "чи",
        "на"
      ],
      [
        "к",
        "нове"
      ],
      [
        "Алекса",
        "нд"
      ],
      [
        "ры",
        "й"
      ],
      [
        "у",
        "спе"
      ],
      [
        "го",
        "ре"
      ],
      [
        "ро",
        "й"
      ],
      [
        "во",
        "с"
      ],
      [
        "М",
        "не"
      ],
      [
        "сер",
        "ди"
      ],
      [
        "ско",
        "ль"
      ],
      [
        "раз",
        "у"
      ],
      [
        "М",
        "их"
      ],
      [
        ")",
        ","
      ],
      [
        "ра",
        "вно"
      ],
      [
        "с",
        "ня"
      ],
      [
        "на",
        "ч"
      ],
      [
        "ши",
        "й"
      ],
      [
        "зна",
        "ть"
      ],
      [
        "бе",
        "ре"
      ],
      [
        "т",
        "ю"
      ],
      [
        "ство",
        "м"
      ],
      [
        "то",
        "н"
      ],
      [
        "ро",
        "ва"
      ],
      [
        "н",
        "ра"
      ],
      [
        "нови",
        "ч"
      ],
      [
        "ж",
        "ало"
      ],
      [
        "гово",
        "ря"
      ],
      [
        "е",
        "ха"
      ],
      [
        "б",
        "ри"
      ],
      [
        "ле",
        "нно"
      ],
      [
        "по",
        "мни"
      ],
      [
        "га",
        "я"
      ],
      [
        "ло",
        "й"
      ],
      [
        "ти",
        "ть"
      ],
      [
        "гля",
        "ды"
      ],
      [
        "которо",
        "е"
      ],
      [
        "ка",
        "жется"
      ],
      [
        "не",
        "р"
      ],
      [
        "ве",
        "ри"
      ],
      [
        "со",
        "ве"
      ],
      [
        "бу",
        "р"
      ],
      [
        "ма",
        "тери"
      ],
      [
        "Мих",
        "а"
      ],
      [
        "о",
        "но"
      ],
      [
        "о",
        "тец"
      ],
      [
        "эти",
        "х"
      ],
      [
        "д",
        "аль"
      ],
      [
        "по",
        "шел"
      ],
      [
        "кня",
        "зь"
      ],
      [
        "по",
        "думал"
      ],
      [
        "се",
        "м"
      ],
      [
        "зна",
        "ет"
      ],
      [
        "гля",
        "дя"
      ],
      [
        "до",
        "х"
      ],
      [
        "хо",
        "ть"
      ],
      [
        "ско",
        "ро"
      ],
      [
        "Б",
        "ы"
      ],
      [
        "вше",
        "й"
      ],
      [
        "ди",
        "л"
      ],
      [
        "е",
        "ди"
      ],
      [
        "и",
        "ск"
      ],
      [
        "м",
        "ало"
      ],
      [
        "пре",
        "жде"
      ],
      [
        "ющи",
        "й"
      ],
      [
        "го",
        "сти"
      ],
      [
        "Л",
        "о"
      ],
      [
        "ме",
        "ре"
      ],
      [
        "ва",
        "ми"
      ],
      [
        "к",
        "лю"
      ],
      [
        "рь",
        "я"
      ],
      [
        "обы",
        "кнове"
      ],
      [
        "бо",
        "ю"
      ],
      [
        "ф",
        "ран"
      ],
      [
        "С",
        "те"
      ],
      [
        "мы",
        "сли"
      ],
      [
        "ст",
        "ала"
      ],
      [
        "и",
        "но"
      ],
      [
        "де",
        "те"
      ],
      [
        "дер",
        "жи"
      ],
      [
        "со",
        "гла"
      ],
      [
        "ши",
        "е"
      ],
      [
        "х",
        "ло"
      ],
      [
        "я",
        "ви"
      ],
      [
        "Пе",
        "ре"
      ],
      [
        "про",
        "чем"
      ],
      [
        "ме",
        "т"
      ],
      [
        "нь",
        "е"
      ],
      [
        "сво",
        "бо"
      ],
      [
        "ши",
        "м"
      ],
      [
        "прия",
        "тно"
      ],
      [
        "не",
        "ю"
      ],
      [
        "ш",
        "ал"
      ],
      [
        "ча",
        "т"
      ],
      [
        "дей",
        "стви"
      ],
      [
        "ду",
        "ше"
      ],
      [
        "эти",
        "м"
      ],
      [
        "д",
        "ни"
      ],
      [
        "мо",
        "р"
      ],
      [
        "ин",
        "тере"
      ],
      [
        "по",
        "ро"
      ],
      [
        "по",
        "чему"
      ],
      [
        "чу",
        "ть"
      ],
      [
        "на",
        "ро"
      ],
      [
        "го",
        "ря"
      ],
      [
        "воз",
        "можно"
      ],
      [
        "сто",
        "в"
      ],
      [
        "од",
        "ной"
      ],
      [
        "ши",
        "ро"
      ],
      [
        "ц",
        "ве"
      ],
      [
        "продол",
        "жал"
      ],
      [
        "ди",
        "те"
      ],
      [
        "голо",
        "сом"
      ],
      [
        "в",
        "ну"
      ],
      [
        "ш",
        "ля"
      ],
      [
        "о",
        "то"
      ],
      [
        "т",
        "вер"
      ],
      [
        "за",
        "втра"
      ],
      [
        "к",
        "ва"
      ],
      [
        "ни",
        "цы"
      ],
      [
        "бо",
        "ро"
      ],
      [
        "ка",
        "кие"
      ],
      [
        "и",
        "сто"
      ],
      [
        "спроси",
        "ла"
      ],
      [
        "ме",
        "нно"
      ],
      [
        "ис",
        "пу"
      ],
      [
        "которы",
        "х"
      ],
      [
        "х",
        "е"
      ],
      [
        "х",
        "ра"
      ],
      [
        "С",
        "та"
      ],
      [
        "ди",
        "ть"
      ],
      [
        "га",
        "ми"
      ],
      [
        "ря",
        "д"
      ],
      [
        "р",
        "но"
      ],
      [
        "ни",
        "ца"
      ],
      [
        "на",
        "зад"
      ],
      [
        "ж",
        "на"
      ],
      [
        "и",
        "т"
      ],
      [
        "вер",
        "х"
      ],
      [
        "се",
        "л"
      ],
      [
        "отве",
        "чал"
      ],
      [
        "улы",
        "ба"
      ],
      [
        "ме",
        "н"
      ],
      [
        "ки",
        "ми"
      ],
      [
        "одно",
        "го"
      ],
      [
        "ка",
        "м"
      ],
      [
        "рас",
        "сказы"
      ],
      [
        "ща",
        "я"
      ],
      [
        "А",
        "х"
      ],
      [
        "к",
        "ли"
      ],
      [
        "ск",
        "ри"
      ],
      [
        "кото",
        "рую"
      ],
      [
        "жа",
        "ть"
      ],
      [
        "ле",
        "н"
      ],
      [
        "сли",
        "шком"
      ],
      [
        "ро",
        "н"
      ],
      [
        "се",
        "го"
      ],
      [
        "хо",
        "д"
      ],
      [
        "коне",
        "чно"
      ],
      [
        "отве",
        "тил"
      ],
      [
        "ме",
        "й"
      ],
      [
        "смо",
        "три"
      ],
      [
        "фран",
        "цу"
      ],
      [
        "те",
        "х"
      ],
      [
        "Анд",
        "рей"
      ],
      [
        "ско",
        "е"
      ],
      [
        "С",
        "ер"
      ],
      [
        "Е",
        "сли"
      ],
      [
        "до",
        "бро"
      ],
      [
        "сле",
        "д"
      ],
      [
        "мо",
        "ей"
      ],
      [
        "в",
        "ста"
      ],
      [
        "бу",
        "ма"
      ],
      [
        "то",
        "ро"
      ],
      [
        "ла",
        "я"
      ],
      [
        "вы",
        "шел"
      ],
      [
        "по",
        "да"
      ],
      [
        "Б",
        "у"
      ],
      [
        "ску",
        "ю"
      ],
      [
        "с",
        "ма"
      ],
      [
        "Сте",
        "па"
      ],
      [
        "П",
        "ь"
      ],
      [
        "д",
        "ре"
      ],
      [
        "пи",
        "с"
      ],
      [
        "чи",
        "во"
      ],
      [
        "ра",
        "к"
      ],
      [
        "г",
        "на"
      ],
      [
        "ни",
        "це"
      ],
      [
        "име",
        "нно"
      ],
      [
        "по",
        "ве"
      ],
      [
        "го",
        "род"
      ],
      [
        "ва",
        "ше"
      ],
      [
        "сол",
        "да"
      ],
      [
        "Пь",
        "ер"
      ],
      [
        "по",
        "мо"
      ],
      [
        "по",
        "бе"
      ],
      [
        "голо",
        "вой"
      ],
      [
        "на",
        "чала"
      ],
      [
        "Ива",
        "нов"
      ],
      [
        "ще",
        "й"
      ],
      [
        "кто",
        "р"
      ],
      [
        "г",
        "ли"
      ],
      [
        "и",
        "спо"
      ],
      [
        "бра",
        "т"
      ],
      [
        "ты",
        "х"
      ],
      [
        "пре",
        "крас"
      ],
      [
        "Пет",
        "ро"
      ],
      [
        "д",
        "ала"
      ],
      [
        "ск",
        "ры"
      ],
      [
        "си",
        "дел"
      ],
      [
        "смо",
        "тря"
      ],
      [
        "Б",
        "е"
      ],
      [
        "ев",
        "на"
      ],
      [
        "ше",
        "п"
      ],
      [
        "ру",
        "ками"
      ],
      [
        "гра",
        "фи"
      ],
      [
        "Ве",
        "дь"
      ],
      [
        "виде",
        "ть"
      ],
      [
        "с",
        "от"
      ],
      [
        "ст",
        "али"
      ],
      [
        "де",
        "н"
      ],
      [
        "Ч",
        "е"
      ],
      [
        "з",
        "ре"
      ],
      [
        "дол",
        "жен"
      ],
      [
        "К",
        "и"
      ],
      [
        "хо",
        "чу"
      ],
      [
        "х",
        "ле"
      ],
      [
        "и",
        "г"
      ],
      [
        "от",
        "ца"
      ],
      [
        "се",
        "д"
      ],
      [
        "дол",
        "жно"
      ],
      [
        "Па",
        "в"
      ],
      [
        "теле",
        "й"
      ],
      [
        "ро",
        "ди"
      ],
      [
        "ты",
        "ся"
      ],
      [
        "по",
        "ме"
      ],
      [
        "сту",
        "п"
      ],
      [
        "мы",
        "й"
      ],
      [
        "мед",
        "ленно"
      ],
      [
        "ча",
        "ть"
      ],
      [
        "т",
        "ки"
      ],
      [
        "ты",
        "м"
      ],
      [
        "мо",
        "гла"
      ],
      [
        "ст",
        "ей"
      ],
      [
        "сю",
        "да"
      ],
      [
        "к",
        "ал"
      ],
      [
        "це",
        "ло"
      ],
      [
        "Ива",
        "н"
      ],
      [
        "со",
        "бой"
      ],
      [
        "ли",
        "шь"
      ],
      [
        "комна",
        "те"
      ],
      [
        "Анд",
        "ре"
      ],
      [
        "го",
        "да"
      ],
      [
        "кра",
        "си"
      ],
      [
        "при",
        "вы"
      ],
      [
        "под",
        "ви"
      ],
      [
        "це",
        "в"
      ],
      [
        "Ва",
        "рва"
      ],
      [
        "то",
        "вари"
      ],
      [
        "На",
        "та"
      ],
      [
        "су",
        "ще"
      ],
      [
        "мо",
        "м"
      ],
      [
        "и",
        "л"
      ],
      [
        "ко",
        "л"
      ],
      [
        "сть",
        "я"
      ],
      [
        "Ф",
        "о"
      ],
      [
        "дума",
        "ть"
      ],
      [
        "П",
        "у"
      ],
      [
        "ста",
        "нови"
      ],
      [
        "Ма",
        "ри"
      ],
      [
        "Мо",
        "ск"
      ],
      [
        "ч",
        "ный"
      ],
      [
        "во",
        "д"
      ],
      [
        "ту",
        "да"
      ],
      [
        "б",
        "ре"
      ],
      [
        "бе",
        "р"
      ],
      [
        "вспо",
        "мни"
      ],
      [
        "еха",
        "ть"
      ],
      [
        "зна",
        "ете"
      ],
      [
        "воз",
        "вра"
      ],
      [
        "кре",
        "п"
      ],
      [
        "стви",
        "е"
      ],
      [
        "с",
        "пу"
      ],
      [
        "доволь",
        "но"
      ],
      [
        "ходи",
        "т"
      ],
      [
        "кри",
        "чал"
      ],
      [
        "и",
        "гра"
      ],
      [
        "в",
        "шая"
      ],
      [
        "хо",
        "в"
      ],
      [
        "ч",
        "ной"
      ],
      [
        "я",
        "сно"
      ],
      [
        "ка",
        "кая"
      ],
      [
        "н",
        "ка"
      ],
      [
        "д",
        "на"
      ],
      [
        "ж",
        "ны"
      ],
      [
        "две",
        "ри"
      ],
      [
        "ь",
        "ю"
      ],
      [
        "ро",
        "я"
      ],
      [
        "Ан",
        "на"
      ],
      [
        "ва",
        "ют"
      ],
      [
        "та",
        "ми"
      ],
      [
        "бо",
        "я"
      ],
      [
        "пре",
        "ж"
      ],
      [
        "дву",
        "х"
      ],
      [
        "говори",
        "ли"
      ],
      [
        "зе",
        "ле"
      ],
      [
        "ф",
        "у"
      ],
      [
        "не",
        "у"
      ],
      [
        "щи",
        "й"
      ],
      [
        "п",
        "ья"
      ],
      [
        "лы",
        "м"
      ],
      [
        "сло",
        "во"
      ],
      [
        "Те",
        "перь"
      ],
      [
        "у",
        "ви"
      ],
      [
        "нно",
        "м"
      ],
      [
        "но",
        "ше"
      ],
      [
        "й",
        "ти"
      ],
      [
        "вре",
        "мени"
      ],
      [
        "одна",
        "ко"
      ],
      [
        "гово",
        "рю"
      ],
      [
        "с",
        "дела"
      ],
      [
        "ма",
        "х"
      ],
      [
        "кон",
        "чи"
      ],
      [
        "комна",
        "ту"
      ],
      [
        "То",
        "лько"
      ],
      [
        "ни",
        "ть"
      ],
      [
        "с",
        "вер"
      ],
      [
        "ско",
        "ре"
      ],
      [
        "ле",
        "ст"
      ],
      [
        "м",
        "ной"
      ],
      [
        "о",
        "па"
      ],
      [
        "весе",
        "ло"
      ],
      [
        "но",
        "к"
      ],
      [
        "ми",
        "ло"
      ],
      [
        "воз",
        "ду"
      ],
      [
        "Да",
        "вы"
      ],
      [
        "я",
        "р"
      ],
      [
        "н",
        "ки"
      ],
      [
        "к",
        "нула"
      ],
      [
        "ше",
        "д"
      ],
      [
        "пер",
        "вый"
      ],
      [
        "сторо",
        "ны"
      ],
      [
        "м",
        "ся"
      ],
      [
        "сто",
        "ль"
      ],
      [
        "сте",
        "р"
      ],
      [
        "Фе",
        "до"
      ],
      [
        "ча",
        "сто"
      ],
      [
        "го",
        "лу"
      ],
      [
        "на",
        "чина"
      ],
      [
        "прав",
        "да"
      ],
      [
        "в",
        "чера"
      ],
      [
        "за",
        "па"
      ],
      [
        "не",
        "в"
      ],
      [
        "в",
        "перед"
      ],
      [
        "мыс",
        "ль"
      ],
      [
        "С",
        "и"
      ],
      [
        "Е",
        "го"
      ],
      [
        "зо",
        "ло"
      ],
      [
        "с",
        "реди"
      ],
      [
        "ко",
        "ман"
      ],
      [
        "же",
        "ли"
      ],
      [
        "вер",
        "но"
      ],
      [
        "сего",
        "дня"
      ],
      [
        "мы",
        "сле"
      ],
      [
        "ъ",
        "ез"
      ],
      [
        "мо",
        "его"
      ],
      [
        "пра",
        "во"
      ],
      [
        "ги",
        "на"
      ],
      [
        "ру",
        "кой"
      ],
      [
        "по",
        "те"
      ],
      [
        "по",
        "вер"
      ],
      [
        "та",
        "й"
      ],
      [
        "слу",
        "ча"
      ],
      [
        "я",
        "ми"
      ],
      [
        "со",
        "стоя"
      ],
      [
        "ни",
        "ки"
      ],
      [
        "ни",
        "цу"
      ],
      [
        "при",
        "ба"
      ],
      [
        "слыш",
        "ал"
      ],
      [
        "ма",
        "я"
      ],
      [
        "мя",
        "г"
      ],
      [
        "те",
        "сь"
      ],
      [
        "ски",
        "м"
      ],
      [
        "зо",
        "в"
      ],
      [
        "ну",
        "ли"
      ],
      [
        "ца",
        "ми"
      ],
      [
        "ф",
        "ор"
      ],
      [
        "че",
        "й"
      ],
      [
        "сле",
        "ду"
      ],
      [
        "вало",
        "сь"
      ],
      [
        "ра",
        "бот"
      ],
      [
        "му",
        "жи"
      ],
      [
        "в",
        "ли"
      ],
      [
        "хозя",
        "й"
      ],
      [
        "воск",
        "ли"
      ],
      [
        "д",
        "ный"
      ],
      [
        "за",
        "ня"
      ],
      [
        "з",
        "ер"
      ],
      [
        "хоте",
        "лось"
      ],
      [
        "О",
        "р"
      ],
      [
        "К",
        "ня"
      ],
      [
        "ми",
        "мо"
      ],
      [
        "сло",
        "в"
      ],
      [
        "сторо",
        "ну"
      ],
      [
        "по",
        "ли"
      ],
      [
        "ходи",
        "ть"
      ],
      [
        "ри",
        "ть"
      ],
      [
        "че",
        "ты"
      ],
      [
        "де",
        "шь"
      ],
      [
        "за",
        "кры"
      ],
      [
        "та",
        "н"
      ],
      [
        "по",
        "ла"
      ],
      [
        "ну",
        "вшись"
      ],
      [
        "сло",
        "вно"
      ],
      [
        "само",
        "м"
      ],
      [
        "Т",
        "и"
      ],
      [
        "т",
        "аль"
      ],
      [
        "сво",
        "ем"
      ],
      [
        "ро",
        "к"
      ],
      [
        "м",
        "ра"
      ],
      [
        "у",
        "ли"
      ],
      [
        "и",
        "на"
      ],
      [
        "дум",
        "ала"
      ],
      [
        "к",
        "ля"
      ],
      [
        "ду",
        "ши"
      ],
      [
        "у",
        "сме"
      ],
      [
        "нь",
        "ше"
      ],
      [
        "нра",
        "ви"
      ],
      [
        "по",
        "се"
      ],
      [
        "ря",
        "дом"
      ],
      [
        "ми",
        "р"
      ],
      [
        "заме",
        "тил"
      ],
      [
        "ка",
        "жды"
      ],
      [
        "па",
        "р"
      ],
      [
        "х",
        "лю"
      ],
      [
        "мо",
        "и"
      ],
      [
        "сту",
        "па"
      ],
      [
        "само",
        "го"
      ],
      [
        "про",
        "во"
      ],
      [
        "стро",
        "е"
      ],
      [
        "пожал",
        "уй"
      ],
      [
        "м",
        "г"
      ],
      [
        "ча",
        "сти"
      ],
      [
        "ме",
        "ста"
      ],
      [
        "хо",
        "че"
      ],
      [
        "пред",
        "ло"
      ],
      [
        "го",
        "суда"
      ],
      [
        "ва",
        "ется"
      ],
      [
        "ма",
        "р"
      ],
      [
        "ле",
        "з"
      ],
      [
        "же",
        "м"
      ],
      [
        "те",
        "л"
      ],
      [
        "ва",
        "й"
      ],
      [
        "да",
        "м"
      ],
      [
        "та",
        "ть"
      ],
      [
        "кра",
        "й"
      ],
      [
        "у",
        "ни"
      ],
      [
        "ни",
        "кто"
      ],
      [
        "кото",
        "ром"
      ],
      [
        "го",
        "вари"
      ],
      [
        "о",
        "г"
      ],
      [
        "по",
        "сте"
      ],
      [
        "ров",
        "на"
      ],
      [
        "о",
        "коло"
      ],
      [
        "по",
        "ра"
      ],
      [
        "пя",
        "т"
      ],
      [
        "Л",
        "а"
      ],
      [
        "ни",
        "л"
      ],
      [
        "это",
        "му"
      ],
      [
        "стра",
        "ш"
      ],
      [
        "к",
        "ров"
      ],
      [
        "ти",
        "я"
      ],
      [
        "т",
        "ала"
      ],
      [
        "ста",
        "ра"
      ],
      [
        "поз",
        "во"
      ],
      [
        "ду",
        "т"
      ],
      [
        "Т",
        "ут"
      ],
      [
        "с",
        "со"
      ],
      [
        "же",
        "на"
      ],
      [
        "ино",
        "гда"
      ],
      [
        "сма",
        "три"
      ],
      [
        "ре",
        "нно"
      ],
      [
        "жа",
        "я"
      ],
      [
        "З",
        "на"
      ],
      [
        "ко",
        "ри"
      ],
      [
        "ве",
        "н"
      ],
      [
        "но",
        "сти"
      ],
      [
        "во",
        "сто"
      ],
      [
        "об",
        "ла"
      ],
      [
        "Т",
        "у"
      ],
      [
        "за",
        "ве"
      ],
      [
        "ви",
        "ча"
      ],
      [
        "ть",
        "е"
      ],
      [
        "мо",
        "ю"
      ],
      [
        "к",
        "ала"
      ],
      [
        "тер",
        "пе"
      ],
      [
        "улыба",
        "ясь"
      ],
      [
        "де",
        "ль"
      ],
      [
        "та",
        "кие"
      ],
      [
        "лег",
        "ко"
      ],
      [
        "з",
        "во"
      ],
      [
        "де",
        "ву"
      ],
      [
        "за",
        "чем"
      ],
      [
        "Г",
        "а"
      ],
      [
        "у",
        "г"
      ],
      [
        "не",
        "ве"
      ],
      [
        "ме",
        "ль"
      ],
      [
        "Не",
        "хлю"
      ],
      [
        "ни",
        "мал"
      ],
      [
        "Ива",
        "нович"
      ],
      [
        "лицо",
        "м"
      ],
      [
        "ка",
        "кое"
      ],
      [
        "бли",
        "з"
      ],
      [
        "взя",
        "л"
      ],
      [
        "ло",
        "к"
      ],
      [
        "со",
        "бою"
      ],
      [
        "п",
        "ала"
      ],
      [
        "до",
        "мой"
      ],
      [
        "у",
        "ми"
      ],
      [
        "К",
        "то"
      ],
      [
        "ка",
        "н"
      ],
      [
        "ме",
        "ся"
      ],
      [
        "ту",
        "ю"
      ],
      [
        "сме",
        "р"
      ],
      [
        "се",
        "н"
      ],
      [
        "мг",
        "нове"
      ],
      [
        "кри",
        "кнул"
      ],
      [
        "к",
        "али"
      ],
      [
        "пра",
        "вля"
      ],
      [
        "г",
        "ря"
      ],
      [
        "де",
        "ть"
      ],
      [
        "лов",
        "на"
      ],
      [
        "к",
        "си"
      ],
      [
        "ве",
        "з"
      ],
      [
        "ла",
        "до"
      ],
      [
        "з",
        "ал"
      ],
      [
        "ви",
        "ть"
      ],
      [
        "с",
        "делать"
      ],
      [
        "ка",
        "ж"
      ],
      [
        "ста",
        "ру"
      ],
      [
        "не",
        "о"
      ],
      [
        "голо",
        "са"
      ],
      [
        "кро",
        "ме"
      ],
      [
        "би",
        "л"
      ],
      [
        "Пере",
        "до"
      ],
      [
        "ме",
        "л"
      ],
      [
        "я",
        "зы"
      ],
      [
        "д",
        "цать"
      ],
      [
        "раз",
        "ве"
      ],
      [
        "зна",
        "ешь"
      ],
      [
        "вст",
        "ал"
      ],
      [
        "день",
        "ги"
      ],
      [
        "разгово",
        "р"
      ],
      [
        "пись",
        "мо"
      ],
      [
        "се",
        "рь"
      ],
      [
        ",",
        "-"
      ],
      [
        "ть",
        "я"
      ],
      [
        "чи",
        "тал"
      ],
      [
        "ли",
        "чно"
      ],
      [
        "че",
        "ние"
      ],
      [
        "про",
        "ти"
      ],
      [
        "ква",
        "рти"
      ],
      [
        "которы",
        "м"
      ],
      [
        "женщи",
        "на"
      ],
      [
        "кры",
        "ль"
      ],
      [
        "ла",
        "ско"
      ],
      [
        "По",
        "том"
      ],
      [
        "т",
        "ка"
      ],
      [
        "ч",
        "ке"
      ],
      [
        "ми",
        "три"
      ],
      [
        "лю",
        "б"
      ],
      [
        "нь",
        "ю"
      ],
      [
        "на",
        "стоя"
      ],
      [
        "со",
        "зна"
      ],
      [
        "счаст",
        "ли"
      ],
      [
        "Г",
        "ра"
      ],
      [
        "об",
        "ходи"
      ],
      [
        "же",
        "нием"
      ],
      [
        "По",
        "д"
      ],
      [
        "аль",
        "но"
      ],
      [
        "каз",
        "ался"
      ],
      [
        "ри",
        "й"
      ],
      [
        "Д",
        "митри"
      ],
      [
        "ня",
        "я"
      ],
      [
        "маль",
        "чи"
      ],
      [
        "по",
        "м"
      ],
      [
        "си",
        "л"
      ],
      [
        "ба",
        "ры"
      ],
      [
        "благо",
        "да"
      ],
      [
        "ющи",
        "е"
      ],
      [
        "действи",
        "тельно"
      ],
      [
        "большо",
        "й"
      ],
      [
        "комна",
        "ты"
      ],
      [
        "в",
        "ку"
      ],
      [
        "ди",
        "т"
      ],
      [
        "чувст",
        "ву"
      ],
      [
        "та",
        "ким"
      ],
      [
        "от",
        "ноше"
      ],
      [
        "уди",
        "вле"
      ],
      [
        "и",
        "ть"
      ],
      [
        "п",
        "ры"
      ],
      [
        "до",
        "к"
      ],
      [
        "ис",
        "пы"
      ],
      [
        "ры",
        "е"
      ],
      [
        "тель",
        "ный"
      ],
      [
        "од",
        "ну"
      ],
      [
        "прия",
        "т"
      ],
      [
        "ч",
        "ные"
      ],
      [
        "моло",
        "дой"
      ],
      [
        "би",
        "ра"
      ],
      [
        "ска",
        "жу"
      ],
      [
        "ск",
        "возь"
      ],
      [
        "сто",
        "м"
      ],
      [
        "лы",
        "х"
      ],
      [
        "ка",
        "ким"
      ],
      [
        "Никола",
        "й"
      ],
      [
        "су",
        "т"
      ],
      [
        "жи",
        "ла"
      ],
      [
        "ды",
        "ха"
      ],
      [
        "не",
        "на"
      ],
      [
        "ющи",
        "х"
      ],
      [
        "дво",
        "р"
      ],
      [
        "смотре",
        "ть"
      ],
      [
        "ок",
        "на"
      ],
      [
        "до",
        "ж"
      ],
      [
        "подо",
        "шел"
      ],
      [
        "ф",
        "о"
      ],
      [
        "ви",
        "ла"
      ],
      [
        "то",
        "ра"
      ],
      [
        "ц",
        "кий"
      ],
      [
        "ру",
        "ка"
      ],
      [
        "ш",
        "ке"
      ],
      [
        "ч",
        "рез"
      ],
      [
        "ве",
        "че"
      ],
      [
        "и",
        "ч"
      ],
      [
        "про",
        "сти"
      ],
      [
        "не",
        "пре"
      ],
      [
        "спокой",
        "но"
      ],
      [
        "за",
        "ви"
      ],
      [
        "тре",
        "во"
      ],
      [
        "ста",
        "ро"
      ],
      [
        "Р",
        "у"
      ],
      [
        "ти",
        "й"
      ],
      [
        "жи",
        "ли"
      ],
      [
        "гром",
        "ко"
      ],
      [
        "це",
        "р"
      ],
      [
        "вз",
        "дох"
      ],
      [
        "любо",
        "вь"
      ],
      [
        "но",
        "ж"
      ],
      [
        "ри",
        "ла"
      ],
      [
        "п",
        "ру"
      ],
      [
        "на",
        "ше"
      ],
      [
        "щу",
        "ю"
      ],
      [
        "ре",
        "бе"
      ],
      [
        "пи",
        "л"
      ],
      [
        "та",
        "х"
      ],
      [
        "нем",
        "ного"
      ],
      [
        "глу",
        "бо"
      ],
      [
        "до",
        "ста"
      ],
      [
        "тель",
        "ство"
      ],
      [
        "мол",
        "чал"
      ],
      [
        "на",
        "ру"
      ],
      [
        "на",
        "ходи"
      ],
      [
        "ше",
        "е"
      ],
      [
        "дума",
        "ю"
      ],
      [
        "ете",
        "р"
      ],
      [
        "ва",
        "ю"
      ],
      [
        "вно",
        "е"
      ],
      [
        "о",
        "кру"
      ],
      [
        "вопро",
        "с"
      ],
      [
        "глаза",
        "х"
      ],
      [
        "О",
        "дна"
      ],
      [
        "ви",
        "нова"
      ],
      [
        "и",
        "д"
      ],
      [
        "сто",
        "ит"
      ],
      [
        "Ма",
        "рья"
      ],
      [
        "в",
        "шую"
      ],
      [
        "гу",
        "бы"
      ],
      [
        "ш",
        "та"
      ],
      [
        "зна",
        "ла"
      ],
      [
        "спо",
        "ко"
      ],
      [
        "ни",
        "лся"
      ],
      [
        "же",
        "нии"
      ],
      [
        "чи",
        "ть"
      ],
      [
        "жи",
        "т"
      ],
      [
        "тяже",
        "ло"
      ],
      [
        "на",
        "род"
      ],
      [
        "смотре",
        "ла"
      ],
      [
        "види",
        "мо"
      ],
      [
        "Ли",
        "т"
      ],
      [
        "б",
        "ь"
      ],
      [
        "д",
        "не"
      ],
      [
        "ско",
        "р"
      ],
      [
        "про",
        "говорил"
      ],
      [
        "ста",
        "н"
      ],
      [
        "об",
        "а"
      ],
      [
        "по",
        "ря"
      ],
      [
        "нь",
        "ко"
      ],
      [
        "говоря",
        "т"
      ],
      [
        "не",
        "рал"
      ],
      [
        "га",
        "х"
      ],
      [
        "г",
        "ло"
      ],
      [
        "ню",
        "ю"
      ],
      [
        "по",
        "спе"
      ],
      [
        "и",
        "те"
      ],
      [
        "до",
        "ме"
      ],
      [
        "хо",
        "чет"
      ],
      [
        "дру",
        "га"
      ],
      [
        "си",
        "ла"
      ],
      [
        "П",
        "ра"
      ],
      [
        "си",
        "я"
      ],
      [
        "с",
        "ра"
      ],
      [
        "со",
        "мне"
      ],
      [
        "други",
        "х"
      ],
      [
        "серь",
        "ез"
      ],
      [
        "гля",
        "дел"
      ],
      [
        "стави",
        "ть"
      ],
      [
        "ве",
        "чер"
      ],
      [
        "каз",
        "ал"
      ],
      [
        "останови",
        "лся"
      ],
      [
        "дале",
        "ко"
      ],
      [
        "Миха",
        "й"
      ],
      [
        "по",
        "ль"
      ],
      [
        "а",
        "к"
      ],
      [
        "ре",
        "ше"
      ],
      [
        "ша",
        "ть"
      ],
      [
        "па",
        "мя"
      ],
      [
        "с",
        "разу"
      ],
      [
        "жи",
        "те"
      ],
      [
        "то",
        "е"
      ],
      [
        "ва",
        "н"
      ],
      [
        "четы",
        "ре"
      ],
      [
        "го",
        "й"
      ],
      [
        "на",
        "зы"
      ],
      [
        "по",
        "тре"
      ],
      [
        "бо",
        "г"
      ],
      [
        "фи",
        "гу"
      ],
      [
        "ни",
        "з"
      ],
      [
        "ск",
        "ло"
      ],
      [
        "ру",
        "ках"
      ],
      [
        "в",
        "пол"
      ],
      [
        "е",
        "два"
      ],
      [
        "о",
        "све"
      ],
      [
        "ж",
        "о"
      ],
      [
        "с",
        "хва"
      ],
      [
        "воль",
        "но"
      ],
      [
        "сме",
        "ш"
      ],
      [
        "га",
        "ть"
      ],
      [
        "вы",
        "ми"
      ],
      [
        "ци",
        "я"
      ],
      [
        "г",
        "нул"
      ],
      [
        "Па",
        "н"
      ],
      [
        "тем",
        "но"
      ],
      [
        "да",
        "я"
      ],
      [
        "Ле",
        "вин"
      ],
      [
        "о",
        "ди"
      ],
      [
        "дру",
        "гу"
      ],
      [
        "стра",
        "нно"
      ],
      [
        "от",
        "во"
      ],
      [
        "е",
        "вич"
      ],
      [
        "о",
        "щу"
      ],
      [
        "мы",
        "е"
      ],
      [
        "ну",
        "лись"
      ],
      [
        "пе",
        "чат"
      ],
      [
        "во",
        "шел"
      ],
      [
        "гру",
        "ди"
      ],
      [
        "до",
        "са"
      ],
      [
        "ди",
        "я"
      ],
      [
        "ска",
        "ть"
      ],
      [
        "на",
        "ш"
      ],
      [
        "боле",
        "з"
      ],
      [
        "роя",
        "тно"
      ],
      [
        "испо",
        "л"
      ],
      [
        "про",
        "тя"
      ],
      [
        "ты",
        "ми"
      ],
      [
        "вший",
        "ся"
      ],
      [
        "Е",
        "му"
      ],
      [
        "ходи",
        "ли"
      ],
      [
        "о",
        "гром"
      ],
      [
        "ст",
        "ру"
      ],
      [
        "го",
        "д"
      ],
      [
        "с",
        "чита"
      ],
      [
        "ч",
        "о"
      ],
      [
        "крас",
        "не"
      ],
      [
        "моло",
        "до"
      ],
      [
        "д",
        "ался"
      ],
      [
        "по",
        "я"
      ],
      [
        "в",
        "скри"
      ],
      [
        "ни",
        "ч"
      ],
      [
        "Ор",
        "тру"
      ],
      [
        "ве",
        "й"
      ],
      [
        "у",
        "че"
      ],
      [
        "ходи",
        "ла"
      ],
      [
        "во",
        "рот"
      ],
      [
        "при",
        "зна"
      ],
      [
        "моло",
        "ды"
      ],
      [
        "исто",
        "ри"
      ],
      [
        "раз",
        "дра"
      ],
      [
        "ру",
        "ба"
      ],
      [
        "ши",
        "на"
      ],
      [
        "зна",
        "чит"
      ],
      [
        "дер",
        "жал"
      ],
      [
        "улыб",
        "кой"
      ],
      [
        "уди",
        "ви"
      ],
      [
        "све",
        "те"
      ],
      [
        "францу",
        "з"
      ],
      [
        "о",
        "ру"
      ],
      [
        "у",
        "доволь"
      ],
      [
        "не",
        "ожида"
      ],
      [
        "да",
        "в"
      ],
      [
        "со",
        "ба"
      ],
      [
        "люб",
        "ви"
      ],
      [
        "ш",
        "ко"
      ],
      [
        "во",
        "лю"
      ],
      [
        "пра",
        "вле"
      ],
      [
        "мину",
        "т"
      ],
      [
        "в",
        "прочем"
      ],
      [
        "сторо",
        "жно"
      ],
      [
        "ющи",
        "м"
      ],
      [
        "само",
        "е"
      ],
      [
        "Е",
        "ле"
      ],
      [
        "ис",
        "че"
      ],
      [
        "кажды",
        "й"
      ],
      [
        "за",
        "ми"
      ],
      [
        "ду",
        "ш"
      ],
      [
        "Го",
        "во"
      ],
      [
        "Алек",
        "се"
      ],
      [
        "не",
        "обходи"
      ],
      [
        "ужа",
        "с"
      ],
      [
        "Ар",
        "ка"
      ],
      [
        "щи",
        "е"
      ],
      [
        "во",
        "все"
      ],
      [
        "ба",
        "р"
      ],
      [
        "Давы",
        "дов"
      ],
      [
        "сво",
        "ему"
      ],
      [
        "де",
        "не"
      ],
      [
        "слу",
        "чи"
      ],
      [
        "К",
        "он"
      ],
      [
        "Варва",
        "ра"
      ],
      [
        "Ната",
        "ша"
      ],
      [
        "ме",
        "ч"
      ],
      [
        "цо",
        "в"
      ],
      [
        "Г",
        "е"
      ],
      [
        "та",
        "кая"
      ],
      [
        "ча",
        "са"
      ],
      [
        "понима",
        "ю"
      ],
      [
        "щи",
        "х"
      ],
      [
        "свои",
        "ми"
      ],
      [
        "сты",
        "й"
      ],
      [
        "П",
        "етер"
      ],
      [
        "ко",
        "рот"
      ],
      [
        "о",
        "пусти"
      ],
      [
        "за",
        "п"
      ],
      [
        "ча",
        "ми"
      ],
      [
        "Сер",
        "г"
      ],
      [
        "лю",
        "блю"
      ],
      [
        "ца",
        "ти"
      ],
      [
        "вше",
        "е"
      ],
      [
        "Алек",
        "сей"
      ],
      [
        "ще",
        "ние"
      ],
      [
        "ги",
        "м"
      ],
      [
        "Ку",
        "ту"
      ],
      [
        "ка",
        "би"
      ],
      [
        "реши",
        "тельно"
      ],
      [
        "воло",
        "сы"
      ],
      [
        "ид",
        "ти"
      ],
      [
        "при",
        "мер"
      ],
      [
        "изве",
        "ст"
      ],
      [
        "Ф",
        "ран"
      ],
      [
        "ле",
        "ние"
      ],
      [
        "силь",
        "но"
      ],
      [
        "ло",
        "ва"
      ],
      [
        "стари",
        "к"
      ],
      [
        "ми",
        "ли"
      ],
      [
        "чай",
        "но"
      ],
      [
        "сем",
        "ь"
      ],
      [
        "со",
        "к"
      ],
      [
        "нач",
        "аль"
      ],
      [
        "по",
        "кой"
      ],
      [
        "пи",
        "ть"
      ],
      [
        "ви",
        "на"
      ],
      [
        "та",
        "ких"
      ],
      [
        "сме",
        "рти"
      ],
      [
        "бор",
        "мо"
      ],
      [
        "по",
        "смотрел"
      ],
      [
        "жи",
        "во"
      ],
      [
        "Я",
        "ков"
      ],
      [
        "ско",
        "му"
      ],
      [
        "скоре",
        "е"
      ],
      [
        "жде",
        "ния"
      ],
      [
        "ста",
        "вле"
      ],
      [
        "стро",
        "й"
      ],
      [
        "сол",
        "нце"
      ],
      [
        "с",
        "ред"
      ],
      [
        "те",
        "ли"
      ],
      [
        "други",
        "е"
      ],
      [
        "Петер",
        "бур"
      ],
      [
        "з",
        "до"
      ],
      [
        "о",
        "кон"
      ],
      [
        "Ва",
        "силь"
      ],
      [
        "До",
        "л"
      ],
      [
        "по",
        "т"
      ],
      [
        "де",
        "во"
      ],
      [
        "го",
        "в"
      ],
      [
        "за",
        "пи"
      ],
      [
        "ех",
        "али"
      ],
      [
        "сдел",
        "ал"
      ],
      [
        "х",
        "ри"
      ],
      [
        "во",
        "круг"
      ],
      [
        "де",
        "ви"
      ],
      [
        "ле",
        "й"
      ],
      [
        "ти",
        "ли"
      ],
      [
        "ба",
        "ми"
      ],
      [
        "И",
        "ль"
      ],
      [
        "ж",
        "дал"
      ],
      [
        "гру",
        "дь"
      ],
      [
        "Иванов",
        "на"
      ],
      [
        "п",
        "ля"
      ],
      [
        "е",
        "ю"
      ],
      [
        "подо",
        "б"
      ],
      [
        "зем",
        "лю"
      ],
      [
        "во",
        "спо"
      ],
      [
        "при",
        "чи"
      ],
      [
        "лов",
        "ко"
      ],
      [
        "стви",
        "я"
      ],
      [
        "ль",
        "но"
      ],
      [
        "По",
        "сле"
      ],
      [
        "м",
        "ною"
      ],
      [
        "са",
        "мой"
      ],
      [
        "зна",
        "чи"
      ],
      [
        "ва",
        "р"
      ],
      [
        "ще",
        "ния"
      ],
      [
        "ви",
        "жу"
      ],
      [
        "от",
        "чая"
      ],
      [
        "хоте",
        "ла"
      ],
      [
        "за",
        "бы"
      ],
      [
        "мо",
        "ли"
      ],
      [
        "дно",
        "го"
      ],
      [
        "глу",
        "по"
      ],
      [
        "Мо",
        "жет"
      ],
      [
        "то",
        "бой"
      ],
      [
        "согла",
        "си"
      ],
      [
        "че",
        "к"
      ],
      [
        "му",
        "чи"
      ],
      [
        "ну",
        "ло"
      ],
      [
        "пред",
        "ставля"
      ],
      [
        "поня",
        "ть"
      ],
      [
        "н",
        "ке"
      ],
      [
        "Ро",
        "сси"
      ],
      [
        "восто",
        "р"
      ],
      [
        "га",
        "р"
      ],
      [
        "дно",
        "е"
      ],
      [
        "про",
        "ис"
      ],
      [
        "изве",
        "стно"
      ],
      [
        "по",
        "ру"
      ],
      [
        "за",
        "тем"
      ],
      [
        "буду",
        "т"
      ],
      [
        "за",
        "говорил"
      ],
      [
        "ч",
        "ным"
      ],
      [
        "но",
        "г"
      ],
      [
        "на",
        "ши"
      ],
      [
        "все",
        "й"
      ],
      [
        "сто",
        "ла"
      ],
      [
        "у",
        "ма"
      ],
      [
        "у",
        "видел"
      ],
      [
        "п",
        "али"
      ],
      [
        "ж",
        "ки"
      ],
      [
        "рас",
        "су"
      ],
      [
        "ра",
        "й"
      ],
      [
        "ре",
        "нь"
      ],
      [
        "ро",
        "де"
      ],
      [
        "во",
        "ю"
      ],
      [
        "за",
        "ко"
      ],
      [
        "ры",
        "х"
      ],
      [
        "шу",
        "м"
      ],
      [
        "сты",
        "е"
      ],
      [
        "над",
        "цать"
      ],
      [
        "та",
        "кого"
      ],
      [
        "за",
        "ди"
      ],
      [
        "ле",
        "ния"
      ],
      [
        "нно",
        "сть"
      ],
      [
        "Х",
        "ри"
      ],
      [
        "м",
        "ноги"
      ],
      [
        "ч",
        "ных"
      ],
      [
        "во",
        "обще"
      ],
      [
        "ж",
        "ь"
      ],
      [
        "л",
        "ки"
      ],
      [
        "д",
        "ной"
      ],
      [
        "На",
        "до"
      ],
      [
        "не",
        "смотря"
      ],
      [
        "при",
        "шел"
      ],
      [
        "жи",
        "в"
      ],
      [
        "по",
        "кло"
      ],
      [
        "по",
        "па"
      ],
      [
        "тель",
        "ным"
      ],
      [
        "су",
        "дь"
      ],
      [
        "люби",
        "л"
      ],
      [
        "ко",
        "ф"
      ],
      [
        "ре",
        "чи"
      ],
      [
        "да",
        "ния"
      ],
      [
        "нно",
        "сти"
      ],
      [
        "взгля",
        "д"
      ],
      [
        "ж",
        "ку"
      ],
      [
        "сы",
        "н"
      ],
      [
        "ис",
        "ку"
      ],
      [
        "ше",
        "н"
      ],
      [
        "Г",
        "ла"
      ],
      [
        "отве",
        "т"
      ],
      [
        "сле",
        "зы"
      ],
      [
        "з",
        "ри"
      ],
      [
        "ти",
        "лась"
      ],
      [
        "те",
        "н"
      ],
      [
        "поня",
        "л"
      ],
      [
        "Кня",
        "зь"
      ],
      [
        "по",
        "мина"
      ],
      [
        "даль",
        "ше"
      ],
      [
        "любо",
        "пыт"
      ],
      [
        "стро",
        "го"
      ],
      [
        "п",
        "лы"
      ],
      [
        "го",
        "рь"
      ],
      [
        "стра",
        "шно"
      ],
      [
        "р",
        "али"
      ],
      [
        "ч",
        "ного"
      ],
      [
        "пи",
        "ро"
      ],
      [
        "ск",
        "е"
      ],
      [
        "офице",
        "р"
      ],
      [
        "испу",
        "га"
      ],
      [
        "случа",
        "е"
      ],
      [
        "же",
        "те"
      ],
      [
        "вы",
        "ше"
      ],
      [
        "мы",
        "х"
      ],
      [
        "вши",
        "м"
      ],
      [
        "ла",
        "м"
      ],
      [
        "ва",
        "ния"
      ],
      [
        "ужа",
        "сно"
      ],
      [
        "сту",
        "пле"
      ],
      [
        "со",
        "об"
      ],
      [
        "лу",
        "ю"
      ],
      [
        "мог",
        "ли"
      ],
      [
        "б",
        "ал"
      ],
      [
        "весь",
        "ма"
      ],
      [
        "пис",
        "ал"
      ],
      [
        "п",
        "ти"
      ],
      [
        "сы",
        "на"
      ],
      [
        "воль",
        "те"
      ],
      [
        "юще",
        "й"
      ],
      [
        "ро",
        "зо"
      ],
      [
        "П",
        "ер"
      ],
      [
        "ве",
        "сти"
      ],
      [
        "стоя",
        "ла"
      ],
      [
        "ж",
        "ный"
      ],
      [
        "у",
        "глу"
      ],
      [
        "ч",
        "ок"
      ],
      [
        "Ва",
        "сили"
      ],
      [
        "з",
        "доро"
      ],
      [
        "кня",
        "зя"
      ],
      [
        "бе",
        "ль"
      ],
      [
        "но",
        "чи"
      ],
      [
        "На",
        "таль"
      ],
      [
        "те",
        "нь"
      ],
      [
        "би",
        "ть"
      ],
      [
        "торо",
        "п"
      ],
      [
        "у",
        "ва"
      ],
      [
        "О",
        "б"
      ],
      [
        "голо",
        "вы"
      ],
      [
        "ж",
        "ные"
      ],
      [
        "ш",
        "ала"
      ],
      [
        "ка",
        "ме"
      ],
      [
        "проси",
        "л"
      ],
      [
        "смея",
        "лся"
      ],
      [
        "в",
        "до"
      ],
      [
        "с",
        "л"
      ],
      [
        "Але",
        "ша"
      ],
      [
        "мо",
        "в"
      ],
      [
        "слу",
        "шал"
      ],
      [
        "о",
        "гля"
      ],
      [
        "по",
        "казы"
      ],
      [
        "солда",
        "т"
      ],
      [
        "Петро",
        "вич"
      ],
      [
        "к",
        "ле"
      ],
      [
        "ж",
        "ным"
      ],
      [
        "не",
        "бо"
      ],
      [
        "на",
        "кло"
      ],
      [
        "зем",
        "ле"
      ],
      [
        "подня",
        "л"
      ],
      [
        "г",
        "али"
      ],
      [
        "д",
        "ней"
      ],
      [
        "щи",
        "м"
      ],
      [
        "П",
        "ре"
      ],
      [
        "ни",
        "ком"
      ],
      [
        "при",
        "ез"
      ],
      [
        "ста",
        "я"
      ],
      [
        "р",
        "т"
      ],
      [
        "у",
        "тра"
      ],
      [
        "ю",
        "щего"
      ],
      [
        "р",
        "ался"
      ],
      [
        "се",
        "да"
      ],
      [
        "вер",
        "нулся"
      ],
      [
        "слу",
        "ж"
      ],
      [
        "мину",
        "ты"
      ],
      [
        "Передо",
        "нов"
      ],
      [
        "о",
        "пу"
      ],
      [
        "н",
        "че"
      ],
      [
        "ра",
        "д"
      ],
      [
        "бе",
        "жал"
      ],
      [
        "по",
        "чувствовал"
      ],
      [
        "Т",
        "ри"
      ],
      [
        "со",
        "н"
      ],
      [
        "воз",
        "бу"
      ],
      [
        "н",
        "ку"
      ],
      [
        "у",
        "до"
      ],
      [
        "ге",
        "нерал"
      ],
      [
        "тельно",
        "е"
      ],
      [
        "Ж",
        "е"
      ],
      [
        "о",
        "хот"
      ],
      [
        "ка",
        "кого"
      ],
      [
        "лы",
        "ми"
      ],
      [
        "жда",
        "ть"
      ],
      [
        "вол",
        "не"
      ],
      [
        "мы",
        "м"
      ],
      [
        "од",
        "ним"
      ],
      [
        "в",
        "печат"
      ],
      [
        "х",
        "ла"
      ],
      [
        "щ",
        "ал"
      ],
      [
        "женщи",
        "ны"
      ],
      [
        "ста",
        "вил"
      ],
      [
        "жи",
        "м"
      ],
      [
        "объя",
        "сни"
      ],
      [
        "сто",
        "лько"
      ],
      [
        "по",
        "кры"
      ],
      [
        "ра",
        "х"
      ],
      [
        "Пет",
        "р"
      ],
      [
        "по",
        "е"
      ],
      [
        "ну",
        "т"
      ],
      [
        "во",
        "ды"
      ],
      [
        "к",
        "ти"
      ],
      [
        "са",
        "по"
      ],
      [
        "п",
        "ь"
      ],
      [
        "ра",
        "чи"
      ],
      [
        "ма",
        "на"
      ],
      [
        "раз",
        "ли"
      ],
      [
        "голо",
        "ве"
      ],
      [
        "образ",
        "ом"
      ],
      [
        "ж",
        "ной"
      ],
      [
        "и",
        "дет"
      ],
      [
        "не",
        "подви"
      ],
      [
        "друго",
        "е"
      ],
      [
        "ко",
        "ли"
      ],
      [
        "и",
        "ми"
      ],
      [
        "ще",
        "е"
      ],
      [
        "ши",
        "не"
      ],
      [
        "здо",
        "ров"
      ],
      [
        "не",
        "приятно"
      ],
      [
        "по",
        "казалось"
      ],
      [
        "под",
        "ро"
      ],
      [
        "дол",
        "жны"
      ],
      [
        "каз",
        "алась"
      ],
      [
        "голо",
        "ва"
      ],
      [
        "да",
        "ет"
      ],
      [
        "лю",
        "дя"
      ],
      [
        "В",
        "ер"
      ],
      [
        "че",
        "ния"
      ],
      [
        "сле",
        "г"
      ],
      [
        "тре",
        "х"
      ],
      [
        "Ма",
        "ка"
      ],
      [
        "Нехлю",
        "дов"
      ],
      [
        "а",
        "вто"
      ],
      [
        "пла",
        "тье"
      ],
      [
        "ци",
        "ю"
      ],
      [
        "Та",
        "м"
      ],
      [
        "в",
        "след"
      ],
      [
        "ка",
        "кую"
      ],
      [
        "На",
        "конец"
      ],
      [
        "стоя",
        "ли"
      ],
      [
        "друго",
        "го"
      ],
      [
        "за",
        "дум"
      ],
      [
        "поло",
        "жение"
      ],
      [
        "о",
        "го"
      ],
      [
        "о",
        "сторожно"
      ],
      [
        "ка",
        "рти"
      ],
      [
        "ре",
        "чь"
      ],
      [
        "ва",
        "жно"
      ],
      [
        "ку",
        "ла"
      ],
      [
        "те",
        "ло"
      ],
      [
        "об",
        "я"
      ],
      [
        "с",
        "ъ"
      ],
      [
        "мо",
        "го"
      ],
      [
        "одно",
        "м"
      ],
      [
        "ле",
        "жа"
      ],
      [
        "лоша",
        "дь"
      ],
      [
        "име",
        "л"
      ],
      [
        "улыб",
        "нулся"
      ],
      [
        "дь",
        "я"
      ],
      [
        "шь",
        "ся"
      ],
      [
        "люби",
        "т"
      ],
      [
        "соб",
        "стве"
      ],
      [
        "не",
        "жно"
      ],
      [
        "пе",
        "л"
      ],
      [
        "самы",
        "й"
      ],
      [
        "ш",
        "кой"
      ],
      [
        "не",
        "чего"
      ],
      [
        "лоша",
        "дей"
      ],
      [
        "у",
        "знал"
      ],
      [
        "за",
        "пла"
      ],
      [
        "же",
        "ни"
      ],
      [
        "ча",
        "сов"
      ],
      [
        "са",
        "д"
      ],
      [
        "поте",
        "ря"
      ],
      [
        "ла",
        "в"
      ],
      [
        "ду",
        "шно"
      ],
      [
        "жа",
        "р"
      ],
      [
        "гра",
        "ф"
      ],
      [
        "госпо",
        "да"
      ],
      [
        "слег",
        "ка"
      ],
      [
        "о",
        "ши"
      ],
      [
        "жи",
        "й"
      ],
      [
        "Бо",
        "ри"
      ],
      [
        "Лу",
        "жи"
      ],
      [
        "же",
        "ны"
      ],
      [
        "ну",
        "ться"
      ],
      [
        "му",
        "зы"
      ],
      [
        "пе",
        "ч"
      ],
      [
        "уже",
        "ли"
      ],
      [
        "чи",
        "й"
      ],
      [
        "д",
        "ная"
      ],
      [
        "ду",
        "р"
      ],
      [
        "це",
        "м"
      ],
      [
        "Че",
        "рез"
      ],
      [
        "Б",
        "ер"
      ],
      [
        "О",
        "че"
      ],
      [
        "П",
        "нин"
      ],
      [
        "С",
        "он"
      ],
      [
        "на",
        "ве"
      ],
      [
        "об",
        "ре"
      ],
      [
        "Ч",
        "ер"
      ],
      [
        "доро",
        "ги"
      ],
      [
        "хот",
        "ите"
      ],
      [
        "каза",
        "ть"
      ],
      [
        "ри",
        "на"
      ],
      [
        "раз",
        "уме"
      ],
      [
        "А",
        "кси"
      ],
      [
        "ве",
        "роятно"
      ],
      [
        "пе",
        "ра"
      ],
      [
        "ско",
        "чил"
      ],
      [
        "зна",
        "я"
      ],
      [
        "тель",
        "ной"
      ],
      [
        "кро",
        "ви"
      ],
      [
        "и",
        "сти"
      ],
      [
        "де",
        "в"
      ],
      [
        "госпо",
        "дин"
      ],
      [
        "писа",
        "ть"
      ],
      [
        "дете",
        "й"
      ],
      [
        "у",
        "з"
      ],
      [
        "ст",
        "ры"
      ],
      [
        "при",
        "гла"
      ],
      [
        "заме",
        "ча"
      ],
      [
        "вне",
        "зап"
      ],
      [
        "ри",
        "я"
      ],
      [
        "слу",
        "ши"
      ],
      [
        "ща",
        "ясь"
      ],
      [
        "бо",
        "л"
      ],
      [
        "обя",
        "за"
      ],
      [
        "н",
        "ди"
      ],
      [
        "не",
        "обыкнове"
      ],
      [
        "си",
        "дела"
      ],
      [
        "из",
        "ви"
      ],
      [
        "тор",
        "же"
      ],
      [
        "хоче",
        "шь"
      ],
      [
        "исче",
        "з"
      ],
      [
        "ма",
        "не"
      ],
      [
        "ды",
        "м"
      ],
      [
        "Степа",
        "н"
      ],
      [
        "у",
        "те"
      ],
      [
        "у",
        "сили"
      ],
      [
        "но",
        "с"
      ],
      [
        "под",
        "ле"
      ],
      [
        "Б",
        "ез"
      ],
      [
        "я",
        "вля"
      ],
      [
        "за",
        "щи"
      ],
      [
        "гу",
        "бер"
      ],
      [
        "Сам",
        "гина"
      ],
      [
        "чрез",
        "вы"
      ],
      [
        "воскли",
        "кнул"
      ],
      [
        "не",
        "чно"
      ],
      [
        "за",
        "ку"
      ],
      [
        "поло",
        "ви"
      ],
      [
        "ру",
        "бле"
      ],
      [
        "ра",
        "ми"
      ],
      [
        "ше",
        "к"
      ],
      [
        "до",
        "сти"
      ],
      [
        "вы",
        "шла"
      ],
      [
        "у",
        "ро"
      ],
      [
        "па",
        "н"
      ],
      [
        "жал",
        "е"
      ],
      [
        "Е",
        "ще"
      ],
      [
        "ря",
        "х"
      ],
      [
        "реши",
        "л"
      ],
      [
        "В",
        "рон"
      ],
      [
        "де",
        "я"
      ],
      [
        "В",
        "прочем"
      ],
      [
        "ст",
        "ри"
      ],
      [
        "за",
        "клю"
      ],
      [
        "ня",
        "х"
      ],
      [
        "е",
        "жели"
      ],
      [
        "л",
        "ка"
      ],
      [
        "ле",
        "жал"
      ],
      [
        "мо",
        "их"
      ],
      [
        "че",
        "ской"
      ],
      [
        "сло",
        "ви"
      ],
      [
        "два",
        "дцать"
      ],
      [
        "Го",
        "спо"
      ],
      [
        "юще",
        "е"
      ],
      [
        "Ч",
        "его"
      ],
      [
        "от",
        "прави"
      ],
      [
        "з",
        "но"
      ],
      [
        "по",
        "стоя"
      ],
      [
        "му",
        "жа"
      ],
      [
        "из",
        "мени"
      ],
      [
        "на",
        "ли"
      ],
      [
        "не",
        "тся"
      ],
      [
        "раз",
        "о"
      ],
      [
        "е",
        "дин"
      ],
      [
        "у",
        "мер"
      ],
      [
        "Ро",
        "стов"
      ],
      [
        "в",
        "лю"
      ],
      [
        "ти",
        "т"
      ],
      [
        "у",
        "шел"
      ],
      [
        "при",
        "ме"
      ],
      [
        "ру",
        "ке"
      ],
      [
        "са",
        "ди"
      ],
      [
        "гово",
        "р"
      ],
      [
        "госпо",
        "ди"
      ],
      [
        "че",
        "н"
      ],
      [
        "непре",
        "менно"
      ],
      [
        "д",
        "ливо"
      ],
      [
        "к",
        "т"
      ],
      [
        "у",
        "ча"
      ],
      [
        "на",
        "и"
      ],
      [
        "за",
        "бот"
      ],
      [
        "ме",
        "нт"
      ],
      [
        "ок",
        "но"
      ],
      [
        "се",
        "ла"
      ],
      [
        "же",
        "шь"
      ],
      [
        "вы",
        "рази"
      ],
      [
        "при",
        "ехал"
      ],
      [
        "па",
        "х"
      ],
      [
        "оче",
        "видно"
      ],
      [
        "в",
        "на"
      ],
      [
        "о",
        "пре"
      ],
      [
        "вшие",
        "ся"
      ],
      [
        "ко",
        "ль"
      ],
      [
        "де",
        "ти"
      ],
      [
        "Г",
        "де"
      ],
      [
        "но",
        "гу"
      ],
      [
        "тру",
        "дно"
      ],
      [
        "Фо",
        "ма"
      ],
      [
        "т",
        "ку"
      ],
      [
        "повто",
        "ря"
      ],
      [
        "о",
        "гляды"
      ],
      [
        "пло",
        "ща"
      ],
      [
        "до",
        "р"
      ],
      [
        "креп",
        "ко"
      ],
      [
        "О",
        "дин"
      ],
      [
        "ку",
        "р"
      ],
      [
        "щи",
        "к"
      ],
      [
        "и",
        "бо"
      ],
      [
        "н",
        "на"
      ],
      [
        "ла",
        "д"
      ],
      [
        "во",
        "ду"
      ],
      [
        "же",
        "й"
      ],
      [
        "от",
        "да"
      ],
      [
        "пере",
        "ди"
      ],
      [
        "се",
        "ку"
      ],
      [
        "вс",
        "пы"
      ],
      [
        "те",
        "ра"
      ],
      [
        "до",
        "га"
      ],
      [
        "се",
        "ре"
      ],
      [
        "тре",
        "н"
      ],
      [
        "с",
        "це"
      ],
      [
        "ру",
        "к"
      ],
      [
        "про",
        "шло"
      ],
      [
        "ха",
        "рак"
      ],
      [
        "б",
        "ля"
      ],
      [
        "ч",
        "кой"
      ],
      [
        "ви",
        "дела"
      ],
      [
        "при",
        "нима"
      ],
      [
        "К",
        "ре"
      ],
      [
        "ба",
        "тю"
      ],
      [
        "так",
        "же"
      ],
      [
        "цо",
        "м"
      ],
      [
        "о",
        "стро"
      ],
      [
        "чи",
        "сто"
      ],
      [
        "вре",
        "ме"
      ],
      [
        "р",
        "ала"
      ],
      [
        "с",
        "на"
      ],
      [
        "же",
        "сто"
      ],
      [
        "ма",
        "с"
      ],
      [
        "ни",
        "как"
      ],
      [
        "сторо",
        "н"
      ],
      [
        "зу",
        "бы"
      ],
      [
        "чувст",
        "ва"
      ],
      [
        "лоша",
        "ди"
      ],
      [
        "деся",
        "ть"
      ],
      [
        "ар",
        "ми"
      ],
      [
        "от",
        "ы"
      ],
      [
        "ка",
        "ть"
      ],
      [
        "ни",
        "кого"
      ],
      [
        "ва",
        "е"
      ],
      [
        "н",
        "та"
      ],
      [
        "на",
        "й"
      ],
      [
        "до",
        "ктор"
      ],
      [
        "се",
        "я"
      ],
      [
        "т",
        "али"
      ],
      [
        "во",
        "обра"
      ],
      [
        "горо",
        "де"
      ],
      [
        "П",
        "ье"
      ],
      [
        "ц",
        "вет"
      ],
      [
        "ло",
        "б"
      ],
      [
        "бра",
        "та"
      ],
      [
        "бле",
        "стя"
      ],
      [
        "д",
        "ю"
      ],
      [
        "на",
        "шего"
      ],
      [
        "ни",
        "ку"
      ],
      [
        "все",
        "ми"
      ],
      [
        "сча",
        "сти"
      ],
      [
        "ти",
        "лись"
      ],
      [
        "му",
        "ю"
      ],
      [
        "при",
        "бли"
      ],
      [
        "га",
        "й"
      ],
      [
        "мер",
        "т"
      ],
      [
        "по",
        "ез"
      ],
      [
        "мо",
        "на"
      ],
      [
        "приба",
        "вил"
      ],
      [
        "сто",
        "ле"
      ],
      [
        "нно",
        "му"
      ],
      [
        "вспомни",
        "л"
      ],
      [
        "бормо",
        "тал"
      ],
      [
        "ва",
        "ние"
      ],
      [
        "доро",
        "ге"
      ],
      [
        "чет",
        "вер"
      ],
      [
        "Еле",
        "на"
      ],
      [
        "бе",
        "спо"
      ],
      [
        "дене",
        "г"
      ],
      [
        "г",
        "ну"
      ],
      [
        "Д",
        "ро"
      ],
      [
        "по",
        "ры"
      ],
      [
        "мо",
        "ему"
      ],
      [
        "че",
        "ство"
      ],
      [
        "ве",
        "чера"
      ],
      [
        "отве",
        "чала"
      ],
      [
        "ех",
        "ала"
      ],
      [
        "а",
        "ре"
      ],
      [
        "Раз",
        "ве"
      ],
      [
        "успе",
        "л"
      ],
      [
        "воспо",
        "мина"
      ],
      [
        "н",
        "ца"
      ],
      [
        "чи",
        "е"
      ],
      [
        "но",
        "гами"
      ],
      [
        "бы",
        "вало"
      ],
      [
        "у",
        "слы"
      ],
      [
        "к",
        "лу"
      ],
      [
        "п",
        "раз"
      ],
      [
        "на",
        "блю"
      ],
      [
        "во",
        "р"
      ],
      [
        "во",
        "ли"
      ],
      [
        "серди",
        "то"
      ],
      [
        "бары",
        "ш"
      ],
      [
        "хо",
        "да"
      ],
      [
        "Хо",
        "ро"
      ],
      [
        "у",
        "лице"
      ],
      [
        "взгля",
        "дом"
      ],
      [
        "о",
        "скор"
      ],
      [
        "серд",
        "ца"
      ],
      [
        "по",
        "го"
      ],
      [
        "Ра",
        "сколь"
      ],
      [
        "тороп",
        "ливо"
      ],
      [
        "я",
        "с"
      ],
      [
        "дя",
        "т"
      ],
      [
        "от",
        "ра"
      ],
      [
        "на",
        "з"
      ],
      [
        "па",
        "рти"
      ],
      [
        "п",
        "ли"
      ],
      [
        "то",
        "ю"
      ],
      [
        "при",
        "сут"
      ],
      [
        "ина",
        "че"
      ],
      [
        "г",
        "не"
      ],
      [
        "по",
        "шла"
      ],
      [
        "по",
        "цело"
      ],
      [
        "ши",
        "н"
      ],
      [
        "выра",
        "жение"
      ],
      [
        "--",
        "--"
      ],
      [
        "сть",
        "е"
      ],
      [
        "По",
        "чему"
      ],
      [
        "воз",
        "ра"
      ],
      [
        "за",
        "бо"
      ],
      [
        "бо",
        "к"
      ],
      [
        "доро",
        "гу"
      ],
      [
        "тре",
        "ть"
      ],
      [
        "сто",
        "лу"
      ],
      [
        "За",
        "чем"
      ],
      [
        "вни",
        "з"
      ],
      [
        "повто",
        "рил"
      ],
      [
        "И",
        "но"
      ],
      [
        "Р",
        "е"
      ],
      [
        "х",
        "ал"
      ],
      [
        "ния",
        "х"
      ],
      [
        "пло",
        "хо"
      ],
      [
        "на",
        "мере"
      ],
      [
        "те",
        "ла"
      ],
      [
        "ли",
        "цу"
      ],
      [
        "ри",
        "н"
      ],
      [
        "ня",
        "л"
      ],
      [
        "из",
        "бе"
      ],
      [
        "То",
        "гда"
      ],
      [
        "коро",
        "ле"
      ],
      [
        "рь",
        "ю"
      ],
      [
        "вших",
        "ся"
      ],
      [
        "до",
        "му"
      ],
      [
        "ту",
        "р"
      ],
      [
        "взгля",
        "нул"
      ],
      [
        "Ду",
        "ня"
      ],
      [
        "гим",
        "на"
      ],
      [
        "у",
        "зна"
      ],
      [
        "со",
        "еди"
      ],
      [
        "тре",
        "бо"
      ],
      [
        "обра",
        "тился"
      ],
      [
        "вся",
        "кий"
      ],
      [
        "усме",
        "х"
      ],
      [
        "П",
        "и"
      ],
      [
        "С",
        "лу"
      ],
      [
        "бо",
        "м"
      ],
      [
        "бо",
        "гу"
      ],
      [
        "со",
        "бра"
      ],
      [
        "ни",
        "ла"
      ],
      [
        "бу",
        "дем"
      ],
      [
        "Фе",
        "доро"
      ],
      [
        "Ни",
        "чего"
      ],
      [
        "споко",
        "и"
      ],
      [
        "т",
        "р"
      ],
      [
        "ду",
        "шу"
      ],
      [
        "вши",
        "ми"
      ],
      [
        "крас",
        "но"
      ],
      [
        "ра",
        "за"
      ],
      [
        "ни",
        "на"
      ],
      [
        "до",
        "че"
      ],
      [
        "ти",
        "н"
      ],
      [
        "си",
        "лы"
      ],
      [
        "смер",
        "ть"
      ],
      [
        "ре",
        "волю"
      ],
      [
        "вя",
        "з"
      ],
      [
        "уго",
        "л"
      ],
      [
        "по",
        "жи"
      ],
      [
        "не",
        "се"
      ],
      [
        "за",
        "нима"
      ],
      [
        "ки",
        "н"
      ],
      [
        "про",
        "с"
      ],
      [
        "ше",
        "ю"
      ],
      [
        "Оче",
        "нь"
      ],
      [
        "ста",
        "рый"
      ],
      [
        "горо",
        "да"
      ],
      [
        "т",
        "ный"
      ],
      [
        "тре",
        "пе"
      ],
      [
        "бе",
        "ло"
      ],
      [
        "дол",
        "жна"
      ],
      [
        "вече",
        "ром"
      ],
      [
        "н",
        "ду"
      ],
      [
        "су",
        "хо"
      ],
      [
        "сте",
        "пе"
      ],
      [
        "со",
        "сед"
      ],
      [
        "у",
        "ста"
      ],
      [
        "при",
        "ходи"
      ],
      [
        "а",
        "д"
      ],
      [
        "во",
        "н"
      ],
      [
        "ри",
        "лся"
      ],
      [
        "мол",
        "чали"
      ],
      [
        "други",
        "м"
      ],
      [
        "д",
        "ные"
      ],
      [
        "гу",
        "ля"
      ],
      [
        "ан",
        "гли"
      ],
      [
        "вспо",
        "мина"
      ],
      [
        "случи",
        "лось"
      ],
      [
        "не",
        "вольно"
      ],
      [
        "ка",
        "ких"
      ],
      [
        "де",
        "тся"
      ],
      [
        "же",
        "нный"
      ],
      [
        "слу",
        "чай"
      ],
      [
        "Ортру",
        "да"
      ],
      [
        "ку",
        "п"
      ],
      [
        "поспе",
        "шно"
      ],
      [
        "У",
        "ж"
      ],
      [
        "на",
        "ме"
      ],
      [
        "ду",
        "ра"
      ],
      [
        "бы",
        "вает"
      ],
      [
        "ди",
        "ва"
      ],
      [
        "ши",
        "л"
      ],
      [
        "тель",
        "ства"
      ],
      [
        "ге",
        "нер"
      ],
      [
        "Г",
        "ру"
      ],
      [
        "б",
        "лу"
      ],
      [
        "ч",
        "ная"
      ],
      [
        "жи",
        "ву"
      ],
      [
        "лю",
        "без"
      ],
      [
        "ду",
        "мы"
      ],
      [
        "ост",
        "аль"
      ],
      [
        "ния",
        "ми"
      ],
      [
        "холо",
        "дно"
      ],
      [
        "необходи",
        "мо"
      ],
      [
        "но",
        "во"
      ],
      [
        "спо",
        "со"
      ],
      [
        "стви",
        "ем"
      ],
      [
        "друго",
        "м"
      ],
      [
        "спраши",
        "вал"
      ],
      [
        "де",
        "ля"
      ],
      [
        "да",
        "ми"
      ],
      [
        "кон",
        "це"
      ],
      [
        "суще",
        "ство"
      ],
      [
        "зем",
        "ли"
      ],
      [
        "С",
        "тра"
      ],
      [
        "то",
        "ва"
      ],
      [
        "не",
        "при"
      ],
      [
        "вал",
        "е"
      ],
      [
        "все",
        "му"
      ],
      [
        "кров",
        "ь"
      ],
      [
        "другу",
        "ю"
      ],
      [
        "р",
        "ту"
      ],
      [
        "об",
        "ма"
      ],
      [
        "пол",
        "ков"
      ],
      [
        "кто",
        "ра"
      ],
      [
        "бе",
        "спокой"
      ],
      [
        "воз",
        "рази"
      ],
      [
        "чи",
        "ла"
      ],
      [
        "ут",
        "ром"
      ],
      [
        "Бы",
        "ло"
      ],
      [
        "на",
        "у"
      ],
      [
        "по",
        "ля"
      ],
      [
        "ра",
        "в"
      ],
      [
        "надо",
        "бно"
      ],
      [
        "жи",
        "е"
      ],
      [
        "пожалуй",
        "ста"
      ],
      [
        "ш",
        "али"
      ],
      [
        "на",
        "шел"
      ],
      [
        "ри",
        "ли"
      ],
      [
        "ступи",
        "л"
      ],
      [
        "те",
        "й"
      ],
      [
        "жа",
        "й"
      ],
      [
        "ве",
        "ле"
      ],
      [
        "от",
        "ли"
      ],
      [
        "жде",
        "ние"
      ],
      [
        "Сон",
        "я"
      ],
      [
        "ви",
        "з"
      ],
      [
        "ди",
        "ла"
      ],
      [
        "ня",
        "ми"
      ],
      [
        "спра",
        "ве"
      ],
      [
        "твер",
        "до"
      ],
      [
        "з",
        "ра"
      ],
      [
        "ши",
        "ть"
      ],
      [
        "Одна",
        "ко"
      ],
      [
        "вше",
        "му"
      ],
      [
        "мог",
        "ло"
      ],
      [
        "ласко",
        "во"
      ],
      [
        "воз",
        "ле"
      ],
      [
        "вя",
        "за"
      ],
      [
        "Про",
        "коф"
      ],
      [
        "внима",
        "тельно"
      ],
      [
        "на",
        "то"
      ],
      [
        "впол",
        "не"
      ],
      [
        "за",
        "кричал"
      ],
      [
        "се",
        "мей"
      ],
      [
        "ще",
        "н"
      ],
      [
        "с",
        "ва"
      ],
      [
        "ра",
        "ди"
      ],
      [
        "ра",
        "ньше"
      ],
      [
        "ча",
        "ю"
      ],
      [
        "до",
        "чь"
      ],
      [
        "Не",
        "жда"
      ],
      [
        "под",
        "нима"
      ],
      [
        "ли",
        "ш"
      ],
      [
        "з",
        "ве"
      ],
      [
        "у",
        "знать"
      ],
      [
        "ва",
        "йте"
      ],
      [
        "ты",
        "вал"
      ],
      [
        "гла",
        "в"
      ],
      [
        "сло",
        "вом"
      ],
      [
        "кла",
        "ды"
      ],
      [
        "чески",
        "е"
      ],
      [
        "л",
        "ку"
      ],
      [
        "Ми",
        "тя"
      ],
      [
        "не",
        "возможно"
      ],
      [
        "ка",
        "пи"
      ],
      [
        "ны",
        "нче"
      ],
      [
        "чно",
        "е"
      ],
      [
        "не",
        "ц"
      ],
      [
        "Александ",
        "ро"
      ],
      [
        "да",
        "ма"
      ],
      [
        "ку",
        "х"
      ],
      [
        "сле",
        "до"
      ],
      [
        "Ка",
        "тери"
      ],
      [
        "ми",
        "ре"
      ],
      [
        "деся",
        "ти"
      ],
      [
        "ра",
        "м"
      ],
      [
        "про",
        "фе"
      ],
      [
        "каза",
        "ков"
      ],
      [
        "Со",
        "ф"
      ],
      [
        "муж",
        "чи"
      ],
      [
        "в",
        "место"
      ],
      [
        "за",
        "ба"
      ],
      [
        "жела",
        "я"
      ],
      [
        "на",
        "вли"
      ],
      [
        "из",
        "о"
      ],
      [
        "паль",
        "цами"
      ],
      [
        "па",
        "пиро"
      ],
      [
        "образ",
        "о"
      ],
      [
        "каз",
        "ались"
      ],
      [
        "стве",
        "н"
      ],
      [
        "уве",
        "ренно"
      ],
      [
        "х",
        "ала"
      ],
      [
        "на",
        "пря"
      ],
      [
        "ка",
        "ре"
      ],
      [
        "ши",
        "ми"
      ],
      [
        "х",
        "уже"
      ],
      [
        "ги",
        "вая"
      ],
      [
        "уби",
        "й"
      ],
      [
        "хо",
        "хот"
      ],
      [
        "ча",
        "сы"
      ],
      [
        "на",
        "пример"
      ],
      [
        "не",
        "счаст"
      ],
      [
        "ва",
        "ш"
      ],
      [
        "ду",
        "ша"
      ],
      [
        "раз",
        "но"
      ],
      [
        "Ма",
        "ть"
      ],
      [
        "тно",
        "е"
      ],
      [
        "чувство",
        "вала"
      ],
      [
        "спа",
        "ть"
      ],
      [
        "з",
        "да"
      ],
      [
        "я",
        "м"
      ],
      [
        "ко",
        "во"
      ],
      [
        "во",
        "спи"
      ],
      [
        "за",
        "ки"
      ],
      [
        "рь",
        "е"
      ],
      [
        "у",
        "жи"
      ],
      [
        "про",
        "ща"
      ],
      [
        "дво",
        "е"
      ],
      [
        "че",
        "ского"
      ],
      [
        "челове",
        "ком"
      ],
      [
        "и",
        "мя"
      ],
      [
        "ша",
        "п"
      ],
      [
        "би",
        "ли"
      ],
      [
        "отве",
        "тила"
      ],
      [
        "слова",
        "ми"
      ],
      [
        "п",
        "лю"
      ],
      [
        "пре",
        "вос"
      ],
      [
        "вз",
        "о"
      ],
      [
        "ред",
        "ко"
      ],
      [
        "уг",
        "рю"
      ],
      [
        "ст",
        "ный"
      ],
      [
        "ца",
        "р"
      ],
      [
        "кня",
        "ги"
      ],
      [
        "В",
        "але"
      ],
      [
        "Е",
        "й"
      ],
      [
        "н",
        "да"
      ],
      [
        "на",
        "шей"
      ],
      [
        "ке",
        "м"
      ],
      [
        "со",
        "ва"
      ],
      [
        "ста",
        "в"
      ],
      [
        "ще",
        "м"
      ],
      [
        "теле",
        "м"
      ],
      [
        "держа",
        "ть"
      ],
      [
        "коман",
        "ди"
      ],
      [
        "тель",
        "ного"
      ],
      [
        "жи",
        "вет"
      ],
      [
        "бес",
        "пре"
      ],
      [
        "тыся",
        "ч"
      ],
      [
        "ле",
        "к"
      ],
      [
        "вал",
        "ь"
      ],
      [
        "сы",
        "па"
      ],
      [
        "могу",
        "т"
      ],
      [
        "сто",
        "лом"
      ],
      [
        "сооб",
        "щи"
      ],
      [
        "В",
        "ла"
      ],
      [
        "про",
        "шел"
      ],
      [
        "го",
        "тов"
      ],
      [
        "ва",
        "шего"
      ],
      [
        "ту",
        "шка"
      ],
      [
        "ред",
        "ка"
      ],
      [
        "ни",
        "те"
      ],
      [
        "про",
        "шу"
      ],
      [
        "чита",
        "ть"
      ],
      [
        "Е",
        "е"
      ],
      [
        "на",
        "вер"
      ],
      [
        "ль",
        "ю"
      ],
      [
        "броси",
        "л"
      ],
      [
        "В",
        "друг"
      ],
      [
        "же",
        "нно"
      ],
      [
        "сты",
        "м"
      ],
      [
        "слуша",
        "ть"
      ],
      [
        "С",
        "ка"
      ],
      [
        "е",
        "ё"
      ],
      [
        "ри",
        "к"
      ],
      [
        "мо",
        "к"
      ],
      [
        "смотре",
        "ли"
      ],
      [
        "высо",
        "ко"
      ],
      [
        "К",
        "ру"
      ],
      [
        "д",
        "ным"
      ],
      [
        "при",
        "гото"
      ],
      [
        "пя",
        "ти"
      ],
      [
        "пле",
        "чи"
      ],
      [
        "глу",
        "хо"
      ],
      [
        "та",
        "щи"
      ],
      [
        "пле",
        "чо"
      ],
      [
        "кри",
        "к"
      ],
      [
        "Ра",
        "зу"
      ],
      [
        "пусти",
        "л"
      ],
      [
        "послед",
        "ний"
      ],
      [
        "Де",
        "ни"
      ],
      [
        "Ти",
        "мо"
      ],
      [
        "на",
        "зна"
      ],
      [
        "пу",
        "сть"
      ],
      [
        "хоро",
        "ше"
      ],
      [
        "кро",
        "ва"
      ],
      [
        "ве",
        "с"
      ],
      [
        "при",
        "е"
      ],
      [
        "ста",
        "ти"
      ],
      [
        "взя",
        "ть"
      ],
      [
        "об",
        "стоя"
      ],
      [
        "сле",
        "з"
      ],
      [
        "продол",
        "жала"
      ],
      [
        "подня",
        "лся"
      ],
      [
        "вшего",
        "ся"
      ],
      [
        "раз",
        "говари"
      ],
      [
        "зна",
        "ком"
      ],
      [
        "говори",
        "те"
      ],
      [
        "Пав",
        "ловна"
      ],
      [
        "у",
        "казы"
      ],
      [
        "ж",
        "ных"
      ],
      [
        "жа",
        "ет"
      ],
      [
        "бли",
        "же"
      ],
      [
        "дво",
        "ре"
      ],
      [
        "яви",
        "лся"
      ],
      [
        "ше",
        "вели"
      ],
      [
        "хо",
        "л"
      ],
      [
        "сте",
        "н"
      ],
      [
        "д",
        "ки"
      ],
      [
        "про",
        "кля"
      ],
      [
        "ночь",
        "ю"
      ],
      [
        "при",
        "ш"
      ],
      [
        "при",
        "тво"
      ],
      [
        "це",
        "лу"
      ],
      [
        "заме",
        "тно"
      ],
      [
        "встре",
        "чу"
      ],
      [
        "прав",
        "ду"
      ],
      [
        "види",
        "т"
      ],
      [
        "не",
        "что"
      ],
      [
        "край",
        "ней"
      ],
      [
        "Наталь",
        "я"
      ],
      [
        "из",
        "и"
      ],
      [
        "гла",
        "вное"
      ],
      [
        "ешь",
        "ся"
      ],
      [
        "а",
        "та"
      ],
      [
        "д",
        "ря"
      ],
      [
        "с",
        "мысле"
      ],
      [
        "ле",
        "е"
      ],
      [
        "ск",
        "ал"
      ],
      [
        "сла",
        "бо"
      ],
      [
        "Григори",
        "я"
      ],
      [
        "с",
        "под"
      ],
      [
        "э",
        "к"
      ],
      [
        "че",
        "ский"
      ],
      [
        "тель",
        "ные"
      ],
      [
        "во",
        "да"
      ]
    ]
  }
}